[PAD]
[UNK]
[MASK]
[CLS]
[SEP]
!
"
#
$
%
&
'
(
)
*
+
,
-
.
/
0
1
2
3
4
5
6
7
8
9
:
;
<
=
>
?
@
[
\
]
^
_
`
a
b
c
d
e
f
g
h
i
j
k
l
m
n
o
p
q
r
s
t
u
v
w
x
y
z
{
|
}
~
##l
##a
##r
##e
##7
##6
##s
##k
##h
##b
##i
##d
##n
##v
##o
##p
##g
##t
##u
##c
##y
##m
##w
##f
##2
##3
##4
##0
##z
##1
##5
##x
##j
##9
##8
##q
th
the
##er
##in
##ac
##es
##at
bl
##an
##ack
black
##en
##or
an
##on
##ing
##ou
##ic
##ed
##it
##is
##ll
to
and
##re
in
of
wh
##ar
##om
00
##le
##ot
##as
##al
is
be
ch
00a
##id
##us
##ent
##ion
##op
##ve
for
##ow
that
li
##em
##ol
you
on
##ist
chin
##ers
##ut
##ican
are
##ir
##ese
st
##et
##ill
##un
00a1
chinese
##ly
re
pr
##ay
am
##ld
##im
pe
it
ha
##am
##ter
com
he
##ver
they
sh
##os
##ur
peop
people
tr
##oc
as
##ith
amer
##ad
##ig
##ves
whit
with
##th
##ke
##all
##ation
all
white
##um
##ct
comm
have
dem
was
##est
do
we
american
##ould
or
by
ab
##ess
##se
##ity
go
##ch
##pp
fr
##ate
su
ne
his
who
00af
##ce
rac
##ies
this
##st
not
de
af
commun
##rat
##ust
##ian
##and
##il
mat
lives
their
##ant
##ere
se
if
##ore
##out
con
un
man
matter
##ocrat
##ag
vot
##ice
##ort
##ul
democrat
##art
at
##ump
##igh
pol
##oun
##iden
will
##ain
##oo
le
from
so
cr
00b
trump
about
##ally
don
biden
but
has
afr
just
me
them
##if
wor
like
##use
##ab
us
##la
out
can
more
##ew
bec
jo
al
##der
##ment
en
what
she
ma
##gh
african
##ause
would
##ive
any
##ish
##one
wom
##ear
ever
##king
americans
ex
get
ar
##ome
##tr
##iz
ag
br
sp
up
##iv
pl
when
pro
because
##ost
##ight
racist
##el
were
##own
part
##her
police
kill
how
##end
than
##ime
kn
##ica
##ose
there
blm
##ther
20
ind
##ber
##ks
##ident
vote
##ong
say
democrats
##ame
year
##ge
##ie
##oy
pres
community
##ud
your
her
##ough
every
##ap
rep
supp
only
off
jew
##ia
want
sla
##ect
one
##wn
##oll
##ell
other
##ard
joe
america
##ous
president
##pan
00b0
##hing
thin
##ial
coun
no
over
##ast
ta
##ities
being
communist
##ue
00b1
gr
blacks
ev
gu
##bl
some
sa
did
int
own
##ated
been
##od
party
##ep
##ib
dis
##ions
woman
##act
now
act
lo
know
##ich
why
##ism
support
##ide
##pl
##ile
should
mar
does
call
##ence
im
my
##ood
##panic
our
hispanic
indian
then
again
ac
##ind
##are
think
pers
countr
these
ob
him
had
most
vi
many
res
see
need
##ting
ad
ant
dr
mur
##ens
##als
##ound
##age
##ama
##uc
person
##ace
000
vir
##ip
po
##ath
years
##ild
men
##gr
##our
new
fl
fir
##ult
##ick
mo
inc
jewish
##iot
##ft
##other
loo
fa
##ors
##ations
##reat
##ine
even
##ict
##pt
##itic
la
may
##urn
##ure
##ates
##ying
cl
those
##ass
##ists
killed
sc
country
prot
down
##arr
virus
crim
viol
going
into
##ents
back
first
##lect
per
fam
##ug
gover
lat
govern
##ff
##ec
time
too
women
##ans
bet
##ade
against
right
##ily
guy
china
##ree
str
##ory
which
left
prob
crime
make
##way
##estr
said
##ubl
murder
co
after
##ving
##qu
mill
politic
stop
##ps
##und
##ied
child
##so
##00
att
nation
id
qu
lead
obama
ter
##ang
racism
##ire
cons
liber
##sel
em
##ea
##ty
##ings
also
app
##ons
mu
##ign
where
pre
##oot
hel
nothing
way
acc
cop
could
destr
government
latin
bus
##ach
race
##ary
##int
elect
soc
bu
##ked
##old
cor
another
much
##fe
same
bel
riot
real
##1f
pop
mex
##20
19
##og
crimin
hist
te
help
##lem
asian
##ord
world
ke
dec
protest
##ase
while
##ery
##ative
really
##ating
##itt
col
tell
0001f
law
still
well
##ren
##oney
good
sy
let
tw
##ved
hate
##ool
popul
grou
mexican
run
ass
sch
##ious
take
des
money
##eg
fe
##hood
##for
##thing
put
##pr
##fer
##gan
##ians
thr
##ually
##ought
##iness
##rem
got
##bs
rem
##less
keep
high
med
voters
belie
201
day
problem
show
offic
rec
doesn
kid
old
very
look
##ple
##orn
death
family
latino
##be
##ite
children
sin
its
republ
opp
##per
business
bill
terr
care
##ands
brown
slaves
##ful
destroy
min
ir
##erv
antif
population
work
start
communities
won
##ull
2020
move
##ale
marx
fem
organ
shot
big
fol
gen
##med
fact
contr
##pect
antifa
##ance
made
whites
##oth
##ower
##day
never
##fore
republican
life
##able
war
##ned
done
##ority
##up
def
ca
here
##uss
coll
par
sm
organiz
since
##tt
inter
bab
tal
##ock
loot
violence
##ders
history
##ning
##con
play
##av
wr
female
##oss
slave
##kes
##ather
stat
leaders
ain
happ
##ible
anti
el
under
plan
bad
great
inst
##ims
sup
chic
neigh
saying
social
neighb
cit
car
vict
##uring
##uct
##read
before
##ave
##ploy
##stem
##ical
thing
dems
pay
##get
state
suprem
##az
system
end
##we
shoot
school
citiz
##ago
wat
media
city
doing
group
folks
burn
cities
cops
harr
prop
kids
ve
sen
arr
##ail
##ress
trying
ill
news
didn
##cent
##ise
##ement
million
##ttps
actually
called
must
chicago
ro
##ically
##gress
national
says
long
##selves
##iend
give
som
##lf
movement
harris
hun
stud
terror
mean
##very
cont
cour
##ng
##alf
lies
anyone
maj
better
neighbor
##gn
##anc
abort
mem
use
wa
##amp
killing
red
##ues
https
come
##ope
poor
attack
num
mon
young
cult
##bers
##ets
##ize
es
op
power
##ra
##ited
sure
believe
##ee
##ugh
liberal
bas
last
##lud
fund
##ives
50
ph
two
rel
used
color
through
babies
cla
##ition
slavery
citizens
spea
friend
themselves
10
hand
russ
imp
sk
sou
##ken
around
point
half
##iss
##ry
stre
anything
supremac
states
gun
##ouse
violent
##ual
inf
##ants
##form
lot
turn
##enc
##ittle
et
kam
conserv
cre
enough
little
ban
ed
##cept
##aid
democratic
neighborhood
##red
##hip
##ially
criminal
vp
ins
##ways
iss
priv
voting
organization
name
maybe
strong
free
##ering
##ala
live
love
ign
etc
somet
list
##ange
##uth
##ash
election
arrest
##res
pand
includ
inv
resp
political
watch
##ts
##upid
##cc
non
##ead
##vid
today
##ason
##imes
votes
always
dif
##ro
during
millions
house
stupid
##ivers
calling
vide
##ak
find
##ah
##ner
##thers
low
mus
##ars
add
isn
far
win
pick
everyone
bre
marxist
##eral
##ution
reg
murdered
illeg
mil
yet
allow
drug
hunter
ll
percent
prom
##ics
kamala
##ison
char
##ployment
both
##wh
fail
something
##ru
##yp
##man
nor
face
home
hard
beh
criminals
mas
head
word
##olog
yes
unt
ww
wee
hom
##ett
##ately
getting
arab
polic
wants
##ward
econ
gl
stand
econom
cle
differ
##xt
deal
using
tax
cand
##ention
##ized
##ivil
owned
##self
##idd
##ently
ge
sw
##aring
##osed
god
working
sl
##ob
##ox
feel
##arly
ital
##uck
##ters
thought
seem
civil
##ike
##ody
100
##ably
boy
needs
irish
until
##alif
ser
fake
contin
##son
##br
unem
sim
##tain
##ised
majority
milit
away
##ush
leg
things
dead
alread
already
13
lab
times
##kk
thug
dep
liberals
happen
##ality
amp
##black
imm
www
pot
##han
##ute
congress
educ
fight
##used
wrong
##ted
chr
ste
compan
geor
without
someone
14
##cr
privile
giv
reason
##igr
less
sur
##ey
adm
camp
pan
##ember
esp
sub
sec
lar
sor
00aa
usa
culture
sing
##les
##alth
claim
rate
##ook
likely
covid
hum
such
making
##60
doll
##istr
running
##ween
ignor
ra
##ven
cho
comp
next
racists
between
##rupt
unemployment
pret
open
fin
pos
told
00ae
conf
businesses
equ
few
instead
pat
rest
south
found
father
true
looting
musl
ent
thous
##its
##ames
art
report
flu
skin
##cer
##ortun
guess
video
ok
oh
##ired
having
famil
control
##land
##arch
read
wal
##led
officers
each
mal
riots
neighborhoods
cap
sold
##iet
##na
africa
jobs
italian
##ream
##ote
##gest
##armed
##ecially
publ
inves
ref
cause
fun
##te
mayor
eas
threat
candid
fre
##ged
united
job
plant
##omin
trans
##ades
probably
remember
students
friends
conservative
##ior
billion
wonder
##iddle
jama
##ba
tot
past
expl
especially
gir
rights
republicans
self
da
victims
families
peace
aren
repar
christ
middle
##ject
##ork
form
aff
consid
else
order
justice
##ollow
crimes
hold
##air
unders
best
##ny
racial
place
prof
month
18
##ced
ident
idiot
makes
everything
quest
##rael
invest
underst
gang
##ix
countries
week
follow
wu
##ered
##ott
change
parent
immigr
##vers
israel
murders
paid
00a8
prison
trib
gets
##ellow
members
george
cur
##vel
including
full
rap
owners
mark
terrorist
campa
##nc
unarmed
become
speak
eff
sign
try
adv
protect
record
privilege
campaign
poll
elected
corrupt
oppress
##los
##umb
thousands
girl
har
##io
##ator
single
reparations
cent
##oud
sell
flag
cu
##body
##oke
##imin
##ending
wuhan
15
number
respons
public
lost
mass
##ional
##ither
commit
eng
communists
artic
loc
pur
##ever
##ased
exc
bring
illegal
plantation
tar
##ount
male
victim
dam
alm
##ont
abortion
##ared
understand
main
##unch
##tern
whole
matters
least
means
office
officer
schools
human
los
##ler
##ond
ear
##iting
ben
##emic
course
gre
kkk
pass
##iter
00ad
ens
looking
socialist
##losi
ret
##ices
##the
except
200
talk
hat
mor
pain
##ief
talking
military
ho
##atives
chec
ligh
politicians
post
anth
##ented
ext
term
fed
kind
once
thugs
mind
##70
accord
decades
street
jamaican
others
##ness
##vi
inn
##ald
cond
const
pelosi
class
rich
ones
crow
bo
seen
##gry
issue
son
truth
ago
##ude
intell
##uction
born
sent
ask
exp
different
candidate
blame
che
repres
almost
ny
troll
##anger
##iously
muslim
vis
##he
started
planned
succ
wouldn
spec
education
innoc
came
hu
##ling
among
abs
burning
dollars
might
tre
##ton
histor
import
det
either
evil
identif
three
unless
agree
thinks
problems
minority
entire
according
25
ru
##reg
hair
demand
exam
buy
systemic
native
##ments
taking
looks
build
deaths
opportun
##iety
hope
sn
##ank
leftist
groups
proper
created
dnc
went
##att
coming
##oyd
took
hit
jud
sol
sad
##ured
supporters
mostly
destroyed
success
pu
rid
sus
though
wearing
floyd
40
gave
coron
economy
steal
innocent
cer
poss
##li
##ined
angry
##oub
comple
##ures
##eah
rioting
russian
parenthood
ey
eur
hill
none
push
sit
uk
hey
exact
prod
##irect
question
ap
naz
##lease
##anda
##ility
along
arm
shooting
16
living
conv
seems
den
fox
set
sick
##ban
hell
patr
ce
jail
mess
##unk
##ages
spy
telling
king
##hn
##ient
##ger
##ides
wasn
propag
##ettle
light
died
mother
##ove
block
goes
lear
exper
##els
freed
anthem
bar
ball
miss
tra
worse
listen
large
land
trade
univers
kne
knows
hispanics
appro
allowed
ensla
cc
rad
sound
##acy
##iff
john
jews
respect
gener
case
port
treat
wall
##inc
trad
brut
society
interest
given
hon
hear
##aged
##ulate
due
hur
lol
sil
##ases
stay
reform
cann
agend
days
fac
fear
hands
enfor
europe
hol
mich
##ience
##uff
##fl
##11
chief
##amed
##verty
wanted
saw
poverty
leader
cauc
players
ccp
direct
##gin
anc
policies
continue
males
doc
nba
side
##ats
##ark
##using
##izing
numbers
er
fig
hor
##92
##ony
welf
##eges
colle
court
welfare
typ
yeah
donald
politics
behind
##ology
company
kettle
line
ms
suff
activ
streets
target
lad
##ped
##ones
beat
proud
##ilt
##ife
disc
incre
30
##62
sex
concer
guys
tech
glob
check
complete
11
val
##bi
##ne
##pet
##ators
taken
##itted
colleges
supremacist
property
div
##ished
acr
responsible
certain
60
##sw
##ck
##ys
sever
pandemic
12
##asc
repl
grow
##gram
across
cou
##ph
##ret
inner
result
##undred
panthers
hundred
##ipp
##ocr
##ughter
bank
propaganda
college
lying
mis
vo
##uly
toward
story
pred
shut
demon
2016
small
issues
agenda
global
pull
##ense
washing
##orts
spread
destruction
protests
protesters
marxists
based
pandering
invol
divers
##ising
##rect
##uses
brought
program
view
curr
federal
example
##ards
account
##cond
guns
mom
warr
##irus
##ether
##verage
enem
failed
fool
compl
deb
seg
outs
qualif
2019
night
##ef
##cle
toget
##aining
brain
laws
destroying
genoc
lowest
admin
soros
exactly
together
90
jack
mention
san
##nn
##ply
blue
top
##let
force
forget
front
thinking
supporting
labor
represent
mult
weap
second
higher
wait
##ught
total
enforc
80
die
distr
##lam
rece
##ague
##ortion
obv
resist
idea
rioters
defund
parents
funding
homes
gay
##ake
health
grand
controll
rob
fire
yellow
##ern
whether
##ived
known
imag
ide
##others
simply
coronav
rates
##just
##ins
answ
whate
##ended
attem
coronavirus
whatever
fal
##64
##ital
##iding
realize
##ully
north
words
huge
calif
food
ment
nar
##lu
##rain
##ming
##itch
##itution
##ots
unf
voted
himself
workers
russians
clean
fighting
fbi
hates
##lish
##antly
prev
assa
market
aw
dumb
fat
##ier
##ops
rev
wealth
##aps
mask
cele
est
fil
mr
##eign
##por
lie
able
fav
##ancy
companies
sorry
funny
bor
fel
please
send
york
blood
gov
worked
enc
expect
marr
arrested
several
genocide
cam
cart
oper
##mm
##icul
heard
impr
##ornia
general
smart
address
##view
intellig
washington
eth
vice
##aud
##par
##gy
##50
##ained
discr
bull
0001f3
0001f4
pupp
enforcement
ath
auth
cath
ann
step
iran
pretty
kneel
caucus
lose
wish
##fully
disg
supremacists
conservatives
california
discrimin
ger
ur
##ung
comes
soon
crap
##ected
shows
hillary
doub
liter
sat
test
##orities
comment
##idents
supposed
disres
months
false
serv
chur
level
##ified
worst
bro
india
##ials
employ
0001f60
freedom
radical
cathol
disrespect
##aking
forced
##oci
races
##ains
leadership
profess
church
dude
nfl
##ball
##yn
##14
##19
rele
worth
action
close
speaking
giving
##istration
opportunity
product
danger
net
##ik
stuff
##ific
mob
ignorant
ukrain
horr
imagine
gar
rather
##ided
critic
meet
clint
shootings
wake
former
west
##onna
##aming
deep
##ibly
desp
defin
statist
##where
brutality
lady
segreg
east
fur
nice
tv
##iver
##wood
within
seeing
##quote
protesting
associ
major
relig
average
holl
##63
##ping
foreign
##eth
fraud
plac
emb
team
homic
christian
absol
blockquote
bunch
hating
names
ow
##77
##ges
##orter
##icking
##ision
enter
percentage
administration
controlled
narrat
jim
##like
##tu
##13
islam
##uted
stor
heart
##iving
accept
sym
statement
##ences
secret
treated
holly
air
cut
dom
occ
##ms
##ows
##ural
drop
member
idiots
enemy
favor
disgust
absolute
24
70
##22
leave
actions
investig
benef
cannot
couple
assault
athlet
book
##ten
##ces
comments
wear
voter
crack
dont
afraid
exist
progress
teach
supremacy
happened
choice
effect
extrem
##attle
bi
card
cnn
mate
nancy
##dd
##ging
anarch
##rew
chang
shir
asked
correct
regard
behav
hundreds
answer
literally
creat
dat
hyp
les
##ines
press
##urs
trave
truly
##igin
biggest
looters
break
domest
hous
xi
##to
##oph
areas
however
march
scream
descr
baby
economic
totally
peaceful
tribes
clinton
27
fasc
gone
##ero
common
outr
corpor
happens
turned
drugs
taxes
immigrants
important
ethn
narrative
domestic
av
##app
whose
youtu
##ird
##ste
supported
cover
playing
senator
suspect
attempt
mast
vac
##itive
##ises
neg
##idence
max
##ept
dispr
supports
appar
decl
##eech
claims
foc
foot
##aire
##well
##isc
chance
area
dog
super
dev
thank
stra
caused
terrorists
funded
watching
selling
article
sounds
involved
warren
athletes
cases
fut
jes
nations
sle
wife
##ral
##yr
##21
##ida
proc
##ational
origin
arg
speech
count
helping
helped
deser
facts
relations
depart
oppressed
purp
border
hollywood
06
21
49
carr
di
four
pa
##ij
##oint
##tim
##ink
##ites
##essed
sug
africans
indians
folk
masks
walk
special
lesb
f0
lack
mag
tired
vs
##ring
##olution
refer
lebr
stopped
congressional
consider
local
losing
successful
ancest
completely
disprop
07
23
9f
dark
mad
sem
ut
vers
##oved
##fact
##urity
committed
##oooo
flor
appear
influ
capital
damn
green
bur
dad
fall
rul
##iate
##outh
##ushing
##une
##ively
finally
universities
honest
disproportion
wing
##by
##ma
nearly
throw
minorities
sense
german
data
masters
sal
##94
town
##omo
##entia
tried
abol
notice
##ization
couldn
##formation
legal
eastern
learn
hurt
outside
dangerous
##stein
fellow
iv
na
##ael
cance
kills
##thern
intim
adop
##athers
interview
statues
attacked
##encing
threaten
gangs
board
ethnic
lebron
florida
barr
cost
##how
##84
##ann
##aging
spo
putting
##ashed
raised
daily
encour
0001f602
jesus
bs
cat
gh
gop
gonna
##lus
##lers
##over
##mer
##ored
##oming
requ
comb
dementia
##osec
##epy
desc
paying
doct
towards
district
puppet
suggest
17
fill
fix
nomin
tear
##bc
##17
##aced
begin
##ols
short
##rated
uncle
manu
##icted
senate
points
norm
security
cuomo
earth
nyc
message
techn
diverse
married
catholic
further
behavior
future
bal
kl
kept
mouth
pict
##eed
##ining
##itage
token
bea
##irm
prosec
amaz
##osing
unb
armed
heritage
##aph
happy
create
promot
policy
girls
return
eyes
hood
nat
##ury
demo
deli
ali
owner
ignore
position
equal
english
articulate
identify
michael
jackson
statistics
absolutely
hypocr
ancestors
22
led
pen
##erc
craz
plus
##ield
yourself
nationals
##ency
breaking
weekend
excuse
patriot
netw
apparently
intimid
manufact
lyn
ran
zero
##val
##atic
##itter
##iday
##ivid
knew
difference
boys
nazi
msm
voices
current
straight
270
aoc
ba
dict
hers
jap
james
kick
named
tick
##aur
##eder
alleg
##stream
##oof
##iple
laugh
aborted
opin
respon
videos
condem
cheap
celebr
japan
bir
dc
lower
mist
nuc
##go
tom
##ential
suc
exec
bright
brother
##endent
individ
event
incom
latinos
mainstream
army
enslaved
concerned
describ
fathers
woke
##hold
##asing
cha
youth
held
shar
manip
##ibility
actual
tex
intern
russia
weeks
possible
products
segregation
nucle
ach
cens
lou
##aw
##65
##sh
##ender
##utes
asking
prov
slaughter
calls
surpr
choose
restaur
constitution
stealing
nazis
revolution
extreme
purpose
base
ml
squ
##67
##more
injust
unlike
##iful
spies
knee
immed
driver
emp
keeping
cares
abortions
following
paint
beaut
bought
pushing
##dc
##15
##80
##ino
##ument
union
takes
evidence
save
assum
financ
judge
response
nuclear
500
dir
##aching
##any
##iti
forg
##ulting
supporter
fair
buying
2018
showing
reported
trait
resisting
lesbian
descend
ep
fought
ppl
path
sist
##haps
##book
##iers
##ued
##instein
##itions
pract
trash
##ction
##ews
alone
brit
later
attacking
basically
unfortun
achie
09
early
hus
pun
##cy
##mber
##25
##90
##ilar
select
became
mayors
perpet
governor
##ogn
0001f62
clearly
##anka
travel
vacc
crazy
louis
08
dist
ken
kore
ol
om
wes
##ease
##23
##ico
##vember
near
brothers
plague
november
ground
fault
perhaps
reality
twice
feinstein
elimin
clear
simple
dollar
muslims
considered
immigration
crowd
portland
predomin
released
lynch
34
bud
ele
hot
hour
pie
rese
##aff
##set
##oes
##wise
##za
##imate
##oses
canad
thanks
presidential
disq
##ground
incar
recogn
phil
wins
panther
trolls
experience
qualified
places
##timore
texas
mot
roll
##rop
##uation
##24
##18
##enty
sports
personal
income
remind
caught
citizen
pretend
affirm
##aires
hole
homicide
disproportionately
baltimore
western
disqus
incarcer
pal
##yle
##icks
##ompl
store
shit
upon
needed
moder
built
highest
recently
charge
explo
explain
weapons
cartels
urban
doubt
ivanka
affirmative
met
##oid
##30
##utions
##unt
prim
agre
provid
particul
indep
##ensive
design
recent
attacks
phot
standing
confeder
hatred
historically
discuss
programs
multiple
obviously
disgusting
network
bit
fine
host
wow
##ii
##97
blaming
pra
heav
tro
commie
##chin
seattle
lea
span
spent
plat
incred
scared
attorn
quite
accompl
officials
potus
christians
investment
brainw
ghett
ticket
beautiful
research
attorney
47
aut
jer
##ees
##kn
##dy
##cil
##zy
##87
##asio
conn
##law
grad
##graph
believes
defend
causing
walking
oppression
hitler
barack
normal
75
foun
game
pock
##iately
##ole
##0f
##ane
ang
information
reject
shame
trust
##ocking
cry
cred
##apol
suppress
appoint
accent
failure
building
johnson
opinion
cow
ul
##lant
##ax
##uel
lied
##str
mail
project
killings
otherwise
council
leftists
lets
fe0f
billions
career
bigot
private
raise
passed
certainly
horrible
youtube
incompet
28
300
45
ah
bow
domin
mod
##band
##atter
often
lib
##etic
proof
willing
##ify
scott
murdering
attention
twitter
starting
supreme
##ances
waiting
##while
serious
claiming
rape
european
prevent
discrimination
immediately
bed
eld
late
##line
##bed
##my
stated
mao
##ugg
politician
mexico
decent
opposed
minne
organizations
southern
insult
illegals
##velop
corruption
intellect
demanding
apart
silencing
weapon
obvious
department
injustice
dream
linc
mart
rice
ten
wind
##ub
thats
lim
##oln
pray
##anted
atlant
prove
everybody
safe
residents
burned
promises
claimed
detro
growing
wealthy
270a
lincoln
35
##sy
##oe
##uce
##96
blind
##uts
door
subs
develop
##rats
separ
anyway
counter
moving
prefer
asians
##itten
esc
refuse
easily
eye
embarr
housing
##apolis
elder
31
bord
box
bern
fly
five
kar
mand
mix
picking
ren
round
##ners
##10
whom
##eter
deg
deals
trumps
worry
uses
age
nobody
somehow
##ips
0001f92
student
infected
picked
allowing
charged
##verse
rule
approval
treatment
type
intelligent
intelligence
0001f3f
religion
changed
shirts
maxine
birth
unfortunately
founder
minneapolis
detroit
embarrass
borders
jan
lock
song
##bing
##vie
##que
##ina
##ouch
cross
virt
##aches
descent
2017
contrib
water
include
invented
admit
equality
soldiers
easy
committing
moron
historic
increase
received
ukraine
despite
japanese
##chinese
26
hop
root
sand
sour
swe
tens
##ka
##ham
##down
##pir
##12
##joy
##atory
##ene
chick
##usion
compr
webs
nec
##ceed
communism
##andon
anymore
##elf
##action
##pton
colour
colors
collect
meaning
lots
positive
holding
polling
ballots
figure
service
amazing
dim
nons
sort
##ble
##com
##fect
##93
##acp
##ications
bey
##oper
forward
lif
reb
share
##key
doz
bidens
##ifican
plenty
offend
shouldn
quot
leading
employment
##ission
regul
##ological
seriously
subur
hoax
replace
debate
kneeling
owens
stores
regardless
influence
herself
aust
bott
dying
je
mid
rally
##rd
##row
##each
##73
##news
##zz
##ements
##ille
pros
haven
trill
goal
joke
maf
therefore
repe
county
guil
log
looked
showed
largest
daughter
traff
doctor
bes
bag
der
iq
ris
tur
##ench
##ories
##iced
##arks
lived
##iment
peoples
##antage
mattered
attr
worr
guilt
##itely
room
role
longer
cultural
dealing
openly
capt
refused
damage
terms
interesting
values
garb
symb
progressive
focus
cancel
british
##ropr
confederate
gain
pack
pig
que
restr
ties
via
##hh
##pay
##ta
##47
##95
##atically
##arian
##ocked
neck
defe
##ounce
becoming
alive
##blm
viet
regime
founded
considering
tribe
harm
typical
estab
camps
naacp
catch
mlk
photo
platform
beyond
guilty
dav
eat
fit
kong
mothers
##light
##au
##68
##nes
##men
third
##iny
##arily
##vement
##illy
##iant
enjoy
indust
##berg
appl
tells
assist
##ference
territ
planet
##ails
music
taxpay
similar
##ledge
questions
polls
massive
deter
generation
govt
meeting
entertain
creating
vaccine
85
jess
jump
ped
rh
rat
yell
##72
##nam
##ville
##ov
##mail
##40
##isl
hearing
##osen
orange
goog
meant
##ifically
enr
sheep
##ape
faith
clin
perfect
1960
colon
desper
wars
neighbors
compet
okay
candidates
effort
responsibility
grew
situation
directly
activists
outrage
abolish
picture
deliver
chaos
husband
predominantly
palest
spanish
##ificant
aud
award
cod
kiss
##biden
##iod
##ester
prior
amend
sha
org
##pper
spend
spons
disapp
moved
clos
##undit
elections
goods
removed
statue
instit
throughout
master
slow
educated
georg
pretending
harass
central
opportunities
university
concern
fascist
avoid
version
technology
condemn
elderly
website
prosper
mafia
99
cust
hong
hang
lang
rom
sum
##af
##vant
##acter
##rec
reach
amount
abuse
agents
killer
##aper
sav
disease
period
##ords
##press
oppos
written
endors
rober
meanwhile
speaks
household
##whel
facebook
billionaire
advantage
century
painted
specifically
honor
ideology
screaming
alleged
manipul
provide
restaurant
descendants
piece
troops
nonsense
georgia
body
cdc
eating
fle
hide
sanger
ver
zones
##aa
##burn
##inated
anim
##icip
##alized
libs
##terday
shop
##this
league
##udes
everywhere
overwhel
##uced
firm
scam
attit
highly
greatest
socialism
ended
studies
label
subject
tribal
convin
traders
replaced
results
##ipped
voice
broken
employees
occur
process
adopted
combined
filled
incredibly
##know
vietnam
boot
cas
cash
fing
hated
hire
hired
pet
wed
##ket
##iam
##iest
##uals
##co
##ana
##arant
##alwell
##olen
##istic
star
##thy
##ateway
anywhere
upset
hero
wanting
##acted
loves
personally
strugg
access
tele
banned
yesterday
##ucky
happening
privileged
compared
locked
bringing
visas
sitting
generations
wallace
suffering
activist
definition
negative
sharpton
dirty
fist
fast
nom
ug
##here
##path
##come
##foot
##ination
##oms
beating
beij
##erson
##aded
democr
above
##ooks
##tra
##izes
acknow
obs
driving
dressed
background
quick
lawy
terrible
senile
basement
funds
phone
insur
character
swalwell
continues
legisl
ridicul
pulled
diversity
moment
definitely
unborn
hours
modern
incompetent
atlanta
langu
beijing
1st
29
bure
cly
lb
lands
loud
rise
tim
##69
##ha
##uary
##you
##55
##eren
##eng
##ref
stick
itself
wel
abiding
sudd
##ift
works
spl
particip
somebody
closed
scum
embr
schiff
##formed
remove
keeps
republic
##itional
respond
glad
slight
boyc
protecting
cuban
eric
suffer
increased
value
##ipping
sanct
defunding
klan
succeed
brainwashed
necess
google
sudden
dims
fans
gates
gather
kany
nurs
owe
var
weren
##ray
##ergy
##ley
##ota
##iring
style
reve
troub
commerc
manag
taught
granted
##ourn
scient
strate
liberation
busy
belong
iron
marxism
veh
millionaires
promised
deadly
ignoring
immigrant
pushed
apolog
listening
sympath
germany
assume
mixed
overwhelming
clyburn
400
cast
href
jung
kent
lem
vast
##fs
stolen
release
whitey
##umer
weak
##sequ
note
search
##bling
disag
marg
drive
screw
decided
cared
waters
useful
turns
pander
ignored
reports
significant
visa
identifies
possibly
complain
maga
extremely
risk
ridiculous
language
kanye
02
dna
gold
junk
mach
nav
tact
ya
##pting
##83
blah
##ication
##itarian
island
demands
##iance
##iled
convers
join
##ival
##oyal
##elly
acting
##ples
fired
incident
quit
appropr
letting
believed
minutes
socialists
##ucture
road
study
related
impeach
##enced
fatherless
efforts
advoc
engine
historical
convention
learned
felons
double
football
pawn
manufacturing
traitor
0001f62d
accomplish
connect
intellectual
symbol
nomine
95
dar
dies
field
six
sending
tyr
##bre
##bur
##pe
##gl
##tw
##uing
##wan
##44
##jud
##acher
tow
chose
forever
likes
staff
ree
reas
abandon
brib
2021
indoc
intention
scr
scar
backs
conspir
protestors
medical
smo
played
citizenship
failing
swamp
surv
affair
tariff
lightfoot
mentality
author
professor
association
benefit
sleepy
threatening
independent
ghetto
bernie
trouble
dump
gives
ice
jones
ka
mc
mer
ple
##ss
##ih
##pundit
##wor
##fr
blake
##anna
blackmail
##arter
##ales
liar
##oles
stood
##ament
##ocks
##ading
##uments
friday
suck
unif
lew
donations
hasn
##ability
myself
drag
apprec
bub
0001f1f
feed
2015
contract
wrote
promote
heads
serve
depend
potential
larger
ready
transg
jamaica
advance
purch
europeans
holiday
announ
satan
corporate
corporations
original
deserve
relationship
rules
slaughtered
financial
forgot
sisters
punish
designed
pocket
credit
besides
palestin
##atewaypundit
nursing
reasons
indoctr
32
81
bul
cy
gas
journ
kim
wit
##ron
##kers
##ium
##gb
##tm
##cing
##98
theg
theft
##oring
##ona
beg
chair
stands
##vert
trained
dear
und
##ounts
usually
energy
anybody
spot
present
offensive
owns
diss
flood
movie
lazy
governors
murderers
cooper
emer
accused
bush
teen
hateful
millionaire
basket
handlers
creepy
slog
deport
profit
identity
constantly
globalist
pulling
currently
aware
felt
levels
religious
appears
prosecut
establish
territory
lbj
33
gee
lin
mike
punch
psy
##lor
##66
##ients
##nd
##wide
##57
##xual
thom
##inting
blasio
##anch
##acked
##enn
##icated
ine
chains
committ
##iling
conc
crying
spring
tai
clown
scot
politically
gender
causes
collusion
soul
infect
turning
inside
candace
##idden
humans
thousand
reading
rub
solid
susp
corona
largely
cannon
holder
divide
views
receive
ukrainian
teachers
anarchists
demograph
individuals
surprised
pathetic
korea
canada
comprom
jesse
robert
vehic
nominee
thegatewaypundit
aka
bom
cir
cant
dou
dare
il
pla
ramp
tour
touch
yr
##iated
##ert
blank
##anny
##aster
fort
##etor
##uries
##oca
ash
##igan
consequ
##ooked
sole
agent
aggress
spoke
dism
knowing
impl
incidents
scary
quote
schol
2012
status
institution
positions
foundation
entit
raped
earn
morons
sadly
chiefs
multi
ideas
improve
argument
alien
leaving
david
amendment
jungle
lewis
transgender
thomas
taiwan
53
dum
lgb
rand
##eal
##back
##iation
##xy
##ashing
##entially
stole
##ays
amb
training
##adel
##rating
##ilities
broke
##elie
guarant
intent
dress
cloth
science
##seless
ways
key
decide
decision
official
defending
greater
shoots
ess
policing
affect
fully
riding
convicted
missed
facing
michigan
targeted
complaining
mentioned
associated
homicides
shirt
houses
barry
individual
international
philadel
autom
bottom
bureau
unifor
philadelph
41
era
lic
loyal
rif
ted
##lords
##egr
##ky
##but
##ius
##ney
blat
blow
##icit
tool
intr
##aries
began
chosen
stere
shout
##they
##sters
matterblack
##ocrats
express
##trump
2022
presiden
offended
displ
acts
persons
##ipe
famous
prejud
corner
1994
teaching
lawless
##orning
bigger
defense
interference
senators
watched
transl
flags
2008
foxnews
tradem
faces
targeting
spreading
##ernick
unfair
celeb
cartel
worthless
effective
beginning
promoting
mistake
eventually
budd
martin
industry
animals
ugly
disagree
conversation
44
aug
bat
boss
cal
cold
games
htm
morning
odd
pow
rare
rats
ton
tough
vand
##uit
##erous
##icult
##icious
toler
##otyp
##asion
##aled
00a0
onto
##osp
tries
train
##though
orders
##ession
##pped
french
mater
##abeth
arson
spew
parts
everyday
offer
perman
latest
gotta
##lessly
stats
eliz
instr
carol
arrived
homeless
militia
subst
funeral
protection
exclus
haters
treason
sniff
robber
occup
investigation
utter
daddy
spoken
encourage
aliens
recognize
provided
particular
gradu
worried
tariffs
presidency
46
55
bols
btw
june
ker
kelly
migr
nike
oct
sun
tort
veter
wide
wisc
##aks
##aken
##ship
##bart
##iors
##oving
##gu
##t0
##45
thus
##acial
##ores
##ita
chann
princ
comr
abused
##ston
sea
uns
although
shel
indeed
##elle
nob
##plom
##aret
adult
virgin
##ipt
##estry
##onsin
prec
twe
gotten
starts
insane
included
dealers
dependent
surve
center
ballot
knees
sexual
mental
supposedly
disrespected
devil
diplom
laughing
celebrities
austral
garbage
rhetor
clinics
necessary
lemon
margaret
conspiracy
kaep
journal
##ocaust
lgbt
wisconsin
05
3rd
fan
hiding
july
lap
mj
rock
rnc
tem
wild
wanna
yep
##75
##bo
##dem
##ya
##ids
stock
##lying
##allen
unr
unle
mans
soft
cru
cris
justified
usual
integr
loving
pool
mobs
perm
columb
schumer
thrown
systematic
illiter
##ahah
added
winning
legit
chris
raising
afford
ordered
hater
minds
constit
snea
solution
holocaust
ancestry
division
broad
islamic
stories
sleep
carry
unbelie
achieve
omar
exploit
particularly
ahead
source
dozens
jeff
logic
boycott
reelect
bulb
basketball
philadelphia
stereotyp
elizabeth
52
eight
fif
jr
jin
mol
opt
pure
picks
sam
vill
##hem
##ds
##yan
##88
##inn
bless
##itbart
initi
##omes
##asm
forces
##ety
prize
##imed
haw
shown
track
##throw
##aine
##lare
space
guard
saving
##ode
##iped
backed
##uctive
waking
phys
includes
addict
breitbart
serving
ignorance
skinned
holds
signed
mainly
loser
interests
figuring
suffered
growth
camer
imprison
referring
ethnicity
natural
patriots
intimidation
dictator
dictators
squad
angel
separate
strategy
##burg
affairs
slogan
psych
committee
random
carolina
virginia
kaepernick
38
band
core
du
dut
hou
kung
rab
sac
sens
site
tat
##hol
##oom
##port
##28
##99
##inent
##eness
##educ
##arity
##asian
##astr
challen
pride
shoes
##thod
allies
weed
noticed
del
dece
unw
willie
worship
exists
brand
indic
overthrow
saf
resour
resign
##ourge
flight
coff
accounts
minnes
player
cars
monday
phr
handler
skill
diff
illegally
arabs
civilization
records
centuries
150
sentences
cheat
judges
figures
fools
acceptable
fascists
throwing
threatened
incarceration
restrict
determ
desperate
disappear
households
finger
lawyer
suddenly
appreciate
trademarks
houston
##thodox
battle
cia
cell
cull
dorn
hy
h1
hij
jac
opr
pac
rush
till
tiny
witch
##nbc
##of
##oor
##ties
##mart
##ze
##ening
##itism
##isy
##arm
chant
##istan
##isted
stab
##under
##that
##ums
demented
orthodox
neither
william
becomes
spir
##eless
##asty
grab
##bled
disp
reserv
scourge
lefty
prep
pregn
ending
somew
numerous
powerful
handling
charges
standard
served
surr
pastor
markets
purple
kinda
visit
snow
experi
expected
operation
iranian
secretary
departments
doctors
empower
heavily
model
subsid
degree
january
offenders
trillion
attract
##ength
welcome
various
commercial
witness
vehicle
html
crisis
jinping
minnesota
difficult
oprah
ber
bare
din
dian
dunk
gent
hiring
lun
loss
mut
tend
##ration
##ker
anger
whining
##usa
forb
franc
delaw
##anding
concent
conven
lee
mel
env
entr
extra
knife
##ously
overt
disgr
actors
myth
persec
pointing
fauc
##asses
emot
corn
feb
puts
remain
older
females
collud
talks
planning
terrorism
colored
handed
farm
##ucker
choosing
confused
reporting
understanding
##hevi
setting
debt
filthy
catholics
professional
churches
anarchy
regarding
##ophob
suspects
##oooooooo
honestly
manipulate
traitors
defeat
attitude
acknowledge
splatter
management
intentionally
bubba
compromised
blatant
channel
rhetoric
unrest
cullors
jacob
delaware
bot
bail
coc
hug
mir
nick
pp
poc
rent
tay
uh
van
vile
##aft
##https
##vard
##joe
##enous
##iciously
chop
##olf
##ister
##ires
reven
heck
##alled
managed
butt
alike
##tray
proves
proven
##astic
loose
acad
drunk
scene
cool
0001f9
letter
believing
organis
talked
elite
sometimes
arrests
feels
admitted
subm
compare
confir
wondering
##otten
harvard
earli
sentence
represents
enslave
silence
activity
beaten
increasing
replac
enemies
attempting
authority
iranians
biological
required
nominate
pictures
restaurants
primary
primarily
0001f923
taxpayer
delivered
sponsored
linked
circ
consequences
safety
phrase
42
bod
bio
cate
cab
eu
hmm
mere
mong
meth
nu
nc
obl
tit
useless
wil
yo
zone
##lo
##lock
##kin
##iar
##nel
##ober
##off
##gg
##tf
##33
##inder
##ature
anal
##isse
##isions
whe
##irates
##urally
trip
##iger
weird
sue
delus
##rators
##ilit
sees
uneduc
##ulent
##aint
meas
joy
partners
suppose
loans
##ucks
murderer
coal
coast
apply
1970
0001f6
mexicans
feet
minim
phony
handle
insulting
listed
arresting
addition
promise
##kkk
walked
refuses
exclud
exceptions
painting
ruined
buildings
solve
mission
enslaving
silent
qualifications
felon
dropped
benefits
carrying
semitic
tearing
hypocrisy
execut
dirt
louisville
motor
motiv
roots
sanders
suburban
traffic
entertainment
custody
hanging
summer
allegedly
labeled
legislation
ironic
display
prejudice
instruct
bolshevi
resources
taylor
earlier
categ
uneducated
04
72
az
aint
bother
bang
bob
dig
gins
hes
hind
lay
lines
mine
nasty
oreg
overse
pants
si
tu
tab
um
wood
##ai
##ros
##ex
##74
##hen
##hib
##oon
##uan
##mas
##fort
##inct
##isive
##lly
##rel
##rets
isis
beans
betray
stations
stating
##eted
##illing
##imately
hall
##ams
americ
##ested
ability
suit
##ander
##iles
conqu
unions
##agan
lect
plot
plans
killers
groc
events
##blasio
owning
object
##enses
##ounded
fires
empt
accus
destructive
buff
teacher
declare
syr
populations
recru
doesnt
irony
smell
interr
interact
elites
systems
nationalists
impact
charl
northern
headline
continued
walmart
wonderful
articles
losers
moral
crowder
huh
identified
susan
hills
denied
patrisse
approach
sexist
0001f44
favorite
outraged
decline
declared
dogs
spokes
described
censors
independ
appointed
hoping
queen
yelling
convince
embrace
machine
tactics
pawns
scotus
plaza
scholars
buddies
october
australia
columbus
constitu
sacr
dunkin
oregon
43
56
51
58
athe
buck
cook
e2
gear
hosp
mic
nad
nine
overs
paper
rb
rout
ruth
table
wage
wave
##away
##ean
##ster
##head
##ikes
##don
##uch
##col
theory
##inking
##ania
inj
cher
##enth
stuck
prime
##igg
waste
##ched
##pping
notable
section
cong
##ager
donuts
outbre
ariz
nov
acqu
perform
strike
attend
quid
consulate
helm
accident
governments
decade
2013
recall
minute
irre
nationalist
##encies
standards
swing
legs
opening
opened
massac
earned
conduct
hopefully
sites
denounce
ceo
learning
portion
hurting
michelle
caucasian
horse
##ascar
predators
demonst
sanction
totalitarian
0001f3ff
0001f3fe
critical
progressives
anarchist
##isco
require
kicked
surprise
epid
sister
incarcerated
agreement
discussion
ghettos
virtually
rebu
trillions
audience
shaun
reached
insurance
sanctions
navy
impeachment
connections
smoking
chairman
institutional
entitled
nobel
fauci
interracial
rbg
arizona
01
94
bike
fish
fell
fuc
fuck
hack
hust
kush
pim
pard
page
sund
silly
tik
wages
wik
##ront
##side
##iel
##iority
##viet
##vision
##pre
##father
##35
##erve
##esh
##icing
infer
whist
##levant
##othing
##ask
liz
##empt
reverse
aside
##ads
fred
sued
##uls
soviet
butch
##abor
exch
knock
##elled
loved
seek
seeking
viral
launch
strange
stopping
##igned
realizing
putin
collabor
elit
carson
endless
reduce
basis
##hips
issued
invasion
behalf
switch
1000
legally
surge
secrets
equity
equally
ownership
signs
purs
200d
anthony
exposed
educational
1619
expert
approx
traditional
hurts
faced
estate
deeply
##owser
attempted
adopt
nature
deliber
penn
bait
census
kenos
pockets
captured
assistance
taxpayers
opposite
manipulated
democracy
accomplishments
announced
prosecutor
demographic
ashamed
automatically
august
kerry
somewhere
##ophobic
##colm
irrelevant
aunt
boo
bats
cock
dudes
egy
jih
luck
piss
rog
vent
##bit
##iable
##ique
##dom
##obe
##mo
##82
bloc
##orice
##icals
##isem
##rees
champ
chuck
00a4
##iron
station
stance
haiti
##amps
shops
trick
##alley
commission
##ests
doj
weather
suic
##iltr
math
sept
unit
justify
alot
braz
parties
##osexual
indig
heroes
saved
##ibuted
actor
lob
obtain
antisem
protester
structure
##qualif
quarter
consist
helps
assets
thru
oppose
factories
looted
statements
##ployed
##ailable
memor
reduced
philly
infiltr
prominent
feeling
italy
militant
compar
confront
malcolm
followed
raping
advis
harder
loses
posted
conditions
absent
director
ancient
figured
divided
divisive
globalists
receiving
grandm
previous
bullsh
employed
despise
teams
owes
assaulted
changes
available
sales
abolished
baiting
celebrate
describe
eliminate
canadian
praised
jerusa
sweet
regular
closer
opposition
endorsed
scientists
overwhelmingly
kentucky
tower
cycle
essentially
licorice
tonight
illiterate
camera
imprisoned
cocaine
bodies
empty
epidemic
pardon
kenosha
egypt
jihad
jerusalem
37
48
b3
bast
bowser
jam
muse
mcc
rip
sides
tied
wtf
zed
##aq
##ror
##ric
##kins
##born
##iating
##dling
##oh
##ware
##16
##53
##jo
##ener
##itute
tools
inher
lift
##ete
##unity
reaction
prost
##urd
##there
##allow
##sea
##ching
france
frank
racially
depr
seat
sect
agencies
bron
spying
spike
beings
margin
obey
draft
flies
launder
climate
strip
##000
accur
realized
197
worldwide
decisions
highlight
femin
warning
organizer
organized
write
systematically
arrog
roaches
somal
##ancing
reduc
surely
turnout
policem
congressman
educate
ignores
confl
patients
reflect
refusing
threats
billionaires
retard
checks
nyt
demanded
successfully
arms
interested
reforms
ladies
discover
demonc
demonstr
robbed
encoun
addressing
0001f4a
germ
falsely
criticize
embass
##ophy
cancell
costs
nominated
kenyan
lynching
rolling
heavy
accomplished
window
flying
embarrassment
chicken
dozen
repeated
trafficking
institutions
convinced
television
quickly
rampant
vandal
angeles
tatum
pregnant
disgrace
outbreak
whistle
indigenous
2nd
36
66
aimed
books
eug
jers
lord
mort
nyp
ole
oil
pit
punk
pink
range
sj
sar
sow
sons
tall
valley
wore
##hel
##bec
##t14
##ux
##cl
##fun
threw
##inary
##information
##esome
blond
bloom
##orse
##icial
##itz
##rett
init
##etime
reid
price
amy
##ume
##ches
##standing
deblasio
##rates
unable
##ifying
arch
spin
whenever
##elsea
##aped
reporter
supply
##iah
presidents
overlords
dislike
mary
newly
fled
mayhem
clar
club
scare
backing
beto
coverage
quo
liberty
emanc
appease
prem
below
colin
assass
remarks
belief
2010
park
organizers
underm
badly
##anced
reds
younger
##ughters
basic
##aha
breath
illegit
glor
feelings
italians
continent
choices
final
patents
followers
england
excuses
maintain
condition
constant
ruin
enslavement
msnbc
miser
representative
mentally
addressed
puppets
authorities
services
investigate
deserves
utop
encouraging
combat
promoted
hypocrite
penal
manufactured
empire
eliminated
lynched
reminds
praise
suppression
ultim
bigoted
escape
karen
lockdown
lifetime
colonial
flee
02dc
merch
palestinians
establishment
inequ
introd
robbery
cruz
pacific
spirit
barely
organisation
confirmed
executive
kushner
exchange
approximately
eugen
jersey
sjw
emancip
57
59
cott
dj
dish
dys
eb
hilar
jem
jun
link
mos
mug
nascar
pd
rall
rational
sab
sight
sna
tree
upper
vene
wo
xen
##riend
##bow
##bies
##do
##oop
##oves
##top
##time
##fare
##face
##27
##54
##59
##58
##ini
##itting
##isons
bear
chain
##idge
liars
##istered
stage
stamps
##illion
shad
shocking
shocked
trial
##outs
unc
##agues
crash
crooked
##abl
enab
sport
partner
yourselves
gull
saud
##ibbe
dise
logo
obam
resulting
floor
clothing
scumb
scores
emails
emirates
soci
runs
##pres
removing
terrified
victory
pays
senior
hung
violently
criminality
insist
##aker
allows
##what
homeland
##ologist
series
unemployed
founders
published
easier
signal
recorded
humanity
passing
ensure
expand
represented
absence
imported
entirely
examples
solutions
puer
treating
erad
bankrupt
assaulting
awful
tested
disrespecting
professors
covered
suspected
negot
originated
countless
versus
patriotic
intimidating
execution
olig
eleven
providing
coward
0001f3fd
contributions
suburbs
pedoph
compete
wedlock
apologize
abandoned
spewing
duty
skills
chanting
francisco
delusional
ginsburg
grocery
recruit
fucking
inferior
hilarious
rallies
venez
65
bent
bible
dur
dest
dang
duck
fu
ghan
hiden
hook
lucky
nail
rail
rasm
sed
tan
ven
wise
##lide
##lines
##rican
##roc
##rastr
##78
##house
##dr
##ubs
##mon
##91
##inating
blamed
##icate
##rell
chelsea
00a6
lip
online
chinat
##imated
hah
ham
##amm
##amin
##tered
sham
shipping
##ado
whitmer
##ctional
wash
##chec
dept
concept
unite
##umpt
womb
ages
spending
pled
203
##apers
suppl
offered
joey
evident
dispar
knowledge
##isma
image
ourselves
##athy
##arry
righte
quality
1950
feat
2014
minor
worker
##ussen
smear
caring
caribbe
shooter
newsp
didnt
##lfriend
contain
memo
infrastr
cream
bann
##ahont
breaks
##why
deput
140
comput
equival
capable
frequ
plantations
girlfriend
prisoners
speakers
retired
kinds
expense
specific
absurd
deny
experiment
document
fooled
segment
awesome
fatally
film
segregated
fraudulent
descript
outright
focused
argue
lesbians
capitalism
buried
ruled
encouraged
amazon
demokkk
executed
internet
constitutional
perpetu
exploiting
agreed
virtue
hopes
1960s
kissing
institute
harassed
attitudes
landslide
bribe
palestinian
solidarity
dougl
solely
dismant
guarantee
uniforms
permanent
exclusively
unleashed
integration
williams
diane
concentration
mirror
method
americas
hospital
deliberately
memorial
grandmother
bullshit
zedong
bloomberg
cotton
dysfun
gullible
puerto
oligarch
ghana
rasmussen
infrastructure
equivalent
03
511
82
92
ay
aid
apr
bout
bond
cess
ded
dope
fet
ga
gt
giant
hidden
hinn
ku
len
mi
nope
pose
ring
ram
rain
rating
raid
tor
tib
tune
vol
vet
##lands
##akes
##roll
##ez
##nie
##pool
##gency
##t17
##me
##fa
##37
##85
thie
ther
##aces
blackness
##ened
##icia
toile
andrew
inform
##arms
isol
bell
chap
forcing
##uther
stone
react
prisons
##term
comed
truck
doors
abr
abra
##chel
##child
noted
dele
##ags
##agne
donate
meat
cancer
joined
exterm
##izer
plight
indent
presence
##blue
resent
advert
draw
##ension
##ounding
scre
perp
strength
attended
socially
beloved
teens
oppon
genu
warfare
talented
wray
plane
hunted
courage
culturally
fundament
gunned
infl
banks
invent
##room
stupidity
finds
finding
additional
breonna
region
failures
legend
steven
confisc
maliciously
reparation
forms
publicly
extortion
classes
detr
250
##lihood
radio
generally
portray
erase
severe
foolish
grandpar
grandfather
improved
steps
tests
disrespectful
garner
criticized
cuts
dropping
existence
pressure
2764
neglect
utm
ruling
districts
hypocrites
intimidate
segregationist
baseball
descendant
omg
budget
incredible
cowards
libt
developed
karl
austin
verb
occurred
gathering
survive
##franch
indoctrinated
begging
bomb
yrs
rifle
powder
laptop
##democrats
fifty
initiative
dictatorship
coffee
hijacked
colluding
merely
wheel
constituents
rebuild
sunday
lobby
germans
embassy
righteous
##ahontas
dysfunctional
cesspool
tibet
39
360
4th
64
77
87
bb
bon
bog
dw
dance
eh
fla
hi
ju
kr
lor
lma
luther
os
roles
soooo
tucker
##ls
##aves
##she
##hl
##boy
##ias
##ipl
##vin
##overs
##point
##t20
##uge
##cast
##coming
##yes
##wom
##fers
##fla
##acing
##omm
##ionage
stoo
stars
##ethe
rein
rever
print
##amer
ships
trou
##och
byrd
abc
goya
##ppers
degr
##ils
##iliated
unjust
mattering
##ular
##ulian
donors
##ifa
##ifies
outf
alert
plain
prohib
yours
##apse
offender
offenses
##pans
noose
##bles
safer
actblue
loan
imple
mural
incor
scen
email
appeal
decre
schem
beliefs
collapse
smith
smoke
smiling
illino
content
contact
cultures
sky
infilt
kamal
adding
promising
wwii
homosexual
differently
dealings
thoughts
steve
143
espionage
poster
explaining
affected
rapist
commitment
minded
boat
identifying
possession
pushes
jailed
propagand
missing
radicals
##onym
types
##rection
accountable
accountability
representation
representatives
controlling
fatal
marri
operative
bully
satur
##ification
placed
investigated
bias
##tok
marching
declar
footage
devast
deserved
falling
salute
nomination
prosecute
prosecuted
returned
hoods
##going
describes
purposely
forgotten
practices
korean
elev
##ueless
windows
boxes
mandatory
degrees
0001f3fb
sources
collective
pigs
defeated
code
concerns
prosperity
custom
roman
savages
shopping
struggle
acknowled
revealed
indoctrination
emergency
aggression
intentions
loyalty
shouting
material
veteran
shelves
adults
survey
restrictions
determine
experienced
forbid
environ
minimum
independence
nadler
museum
snake
chinatown
caribbean
bannon
hinnant
abrams
genuine
600
98
ale
azz
bc
bass
bunk
ell
fer
hbc
mam
ni
nbs
pc
pour
pak
rough
rage
sir
tap
tues
wid
wipe
yea
##lin
##eb
##ses
##kind
##hr
##hum
##da
##den
##dain
##night
##nox
##vs
##vable
##pired
##mates
##48
##86
##aca
blocking
blocked
##acking
##enfranch
##oral
##orks
##only
toss
##lets
##uting
##eting
review
hav
##ami
shan
ship
##osh
##osophy
##ador
##uma
##umented
commies
demean
abusing
whoever
##cell
seize
conce
unqualif
##agn
##agon
cruel
donated
##abe
alicia
enacted
whats
extr
expans
aged
aggr
agency
spray
##ivity
plastic
##uela
grave
guise
disaster
disdain
disenfranch
myster
obnox
resc
ads
incap
##iction
laid
clubs
backward
coinc
stops
apple
preach
accuse
##ogy
popular
takeover
fee
recip
iraq
parade
smarter
writing
ends
endorse
robe
phones
relatives
imposs
pointlessly
crew
insid
##road
##white
hardly
##ette
##ushed
legacy
covid19
refuge
funnel
transport
israeli
speaker
cuba
victimization
2009
posts
posting
mindset
visited
amongst
hairy
eyed
produc
messages
barb
approved
brutal
brutalized
enforce
holy
documents
shutting
shutdown
smaller
moms
debates
operatives
annoy
discriminated
horrific
garza
criticism
furious
accepted
benefited
biased
attempts
speeches
referred
darker
semite
disproportionate
fixed
square
philosophy
agrees
models
0001f3fc
embarrassing
repeat
##nesday
industr
enrich
romney
vietnamese
wednesday
insurrection
sympathy
screwed
golden
sucker
0001f1fa
punishment
souls
fortune
translation
comrades
lgbtq
sleeping
worshiping
snowfla
dinner
academ
title
motivated
bolshevik
overseas
injured
massacre
tiktok
elitist
venture
suicide
comparison
##eteenth
accurate
eugenics
xenophobic
toilet
abraham
indentured
grandparents
implement
illinois
environment
nbsp
tuesday
unqualified
62
74
83
aven
bots
cages
cards
date
fant
fuel
gi
gains
hid
lists
lunch
merc
miam
nuts
pin
rican
ridden
sust
sant
sett
tip
tons
trem
upp
uigh
vit
vicious
yard
yuan
##lson
##right
##eur
##har
##ding
##von
##ok
##oking
##oqu
##cul
##care
##xic
##jan
##orm
##orrow
##eds
toxic
##reh
whine
chances
##idal
##opath
forth
##owing
##ems
ongoing
##erst
reagan
shipped
trail
##ader
##igible
##alling
##umm
##umes
commands
##esting
wears
seven
conference
unique
##ighter
##ooo
lean
soy
soil
donnie
##abet
outlaw
brag
brings
brandon
##iven
plag
prover
##endous
counting
grie
shoulder
aclu
perspect
drivers
drinking
virologist
mov
##fta
clueless
strang
strikes
coord
nationwide
quiet
latina
##acht
societ
1990
deciding
0001f64
##rency
desire
remark
opposing
destroys
wont
genius
factor
warned
deflect
instance
carn
systemically
burnt
proportion
illness
poorly
relative
relief
handled
banner
farce
registered
charter
##ruary
##ologies
swim
swallow
civilized
continuing
stevie
secure
compens
confron
reporters
holders
follows
currency
harves
centers
##okee
locking
excess
greed
retire
exception
hats
extended
cheating
imports
##atto
patron
stayed
holes
directed
valid
coup
demonrats
warrant
ideological
answers
filth
bullets
0001f49
servants
freedoms
hearts
disgusted
investigating
effectively
focusing
superior
originally
counties
nafta
suggesting
herschel
opinions
condemning
censoring
revolutionary
empathy
practice
practicing
perpetrators
eliminating
brainwashing
##known
connected
rejected
bigotry
incompetence
sweat
quotas
attributed
applican
competition
slowly
struggling
lawyers
reveals
kente
advocate
authoritarian
##friend
dependency
clowns
permanently
substant
graduate
torture
comrade
diplomats
legitimate
sneakers
hawk
##ipedia
physical
rabid
reservations
february
instructions
##fortable
interactions
censorship
arrogant
reducing
conflict
cancelled
repeatedly
redskins
jemim
juneteenth
diseases
description
april
chapter
##woman
saturday
obnoxious
miami
5th
89
93
911
a4
bust
bug
cos
dy
dan
e1
fec
fash
faster
harmed
hys
lit
lond
nf
nhl
pant
pence
porn
row
sr
ss
sid
tac
tun
vul
wides
wann
zion
##hs
##hab
##dle
##no
##pers
##part
##pread
##tch
##town
##t16
##uous
##yy
##yeah
##mar
##mad
##wr
##34
##inate
##informed
##acity
##acik
##ici
##icable
##icient
tok
toll
toast
tooth
todd
##rey
informed
##ario
##alk
liked
##illa
priest
peas
peep
##vereign
sher
shake
shift
##igrated
command
web
ord
orient
goals
##cho
unknown
sovereign
##ifting
anytime
##ishing
excell
bridge
upd
##apo
offering
intended
lover
##pless
resem
adam
driven
##iph
poison
firing
firms
incite
cler
clad
scand
millenn
##ache
minist
bigots
contrast
##nedy
conte
courts
waving
friendly
handouts
impunity
skull
info
banning
##ception
##akers
##aham
lows
headed
congressmen
fights
admits
panel
rapper
rappers
equip
fewer
ohio
familiar
capit
capita
soldier
invested
threatens
freak
transm
explained
daughters
christmas
profile
1800
idiotic
investments
corrupted
cube
sentiment
visiting
treas
ruining
judg
convinc
denoun
barrett
balls
silic
discipl
60s
predict
involvement
viewed
qualify
representing
camel
annual
discriminate
profession
relevant
criticizing
meetings
owed
##130
booker
changing
##appy
declaring
21st
diam
versa
burisma
towns
abolition
spoiled
klacik
promotes
networks
allegations
allegiance
tomorrow
sucking
youths
assuming
britain
achieved
kennedy
koreans
pieces
pretends
moderate
jerk
domination
dominated
preventing
insulted
admitting
lifest
jumping
belongs
engineers
bribes
purchased
deported
infection
demographics
rifles
lawlessness
unfairly
celebrating
veterans
jefferson
challenge
h1b
reservation
attractive
lunatic
pocahontas
coalition
hindu
lecturing
atheist
routine
cherokee
wikipedia
september
infiltration
advisor
discovered
whistlebl
illegitimate
utopia
penalty
emancipation
djt
venezuela
203a
lmao
marriage
expansion
incapable
impossible
proverb
hyster
widespread
54
63
76
825
823
a8
bay
bald
bucks
cents
dual
egg
gal
gall
hence
hint
hits
jury
lame
luc
mitt
muss
nut
nose
nbc
ought
pom
pad
pale
ros
rig
rant
rising
rino
ske
task
tuls
vern
ws
wre
wig
##lv
##lished
##rum
##bans
##ien
##dra
##ograph
##pot
##fu
tha
##inet
##inos
##athing
bleed
##another
##onom
##onies
##icting
##itude
toe
##leans
chip
##veland
formed
liby
##olini
##irst
##illed
##illance
revers
priority
##amous
##verted
shr
shes
trag
trend
asks
whitest
alliance
dod
weight
orleans
##sein
##char
##iang
season
unh
unpr
uncom
manh
mankind
##orting
##ulation
criter
justices
joint
alco
brill
proved
proxy
##eline
##aping
##elling
grass
grants
sale
##ibution
disad
disrupt
active
load
loathing
acce
obese
drink
flat
inclus
faux
##itical
clip
strict
cogn
##anged
consum
liberia
appe
accusing
electing
1964
1965
asset
remains
highway
controvers
smoll
installed
payroll
##weight
proph
newsom
monit
503
505
pointed
stream
freeing
livelihood
invited
miles
fails
glasses
cleveland
dealer
civilians
boyfriend
campus
comply
explan
selfish
peacefully
advice
protected
cuz
locations
mainland
morals
checking
feds
condes
expend
expensive
buys
cert
complex
produce
listened
approve
facilities
targets
sexually
resulted
qualification
healthcare
robes
robbing
previously
expecting
operating
wishes
employee
releasing
closely
associate
entering
entered
secretly
existed
creature
marched
corporation
walker
walkaway
reference
interviewed
270c
chauff
mlb
injustices
immediate
achievement
hussein
punished
0001f622
distur
distance
recognized
exploited
jerry
##struction
limited
atlantic
development
established
perfectly
abolishing
codes
savage
manipulating
struggles
sanctuary
commercials
scientist
tactic
##worth
0001f1f8
fortun
dismiss
ambass
uniform
celebrated
odds
surveillance
journalists
reelected
reelection
prepared
entry
persecution
revenge
hmmm
oblig
1970s
excluding
accusations
syria
scholarships
sacrif
accidentally
champion
encounter
vandalism
miserable
dishon
thieves
detriment
bogus
stooge
pakistan
widow
##human
uppity
jemima
fashion
london
equipment
convincing
silicon
diamond
mussolini
tulsa
criteria
alcohol
aa
bump
bost
cbs
dun
dall
fos
guts
han
ic
jur
jared
lu
lago
larry
mac
mock
moses
natives
niger
oops
ps
por
pist
pill
pile
pip
pitch
rum
rose
rude
rosen
sic
settle
tone
tast
ves
wives
yup
zim
##lives
##ae
##eem
##iber
##iences
##pie
##ga
##tin
##ule
##ww
##26
##81
##ince
##inous
##ato
blames
##anity
anime
##onami
##inging
toonami
##reach
ink
ingr
inmates
##arming
##omp
ish
beach
##owe
##owed
chines
stocking
##etically
##lyn
reward
pron
hamm
shall
shield
shoe
traged
##ocol
whiteness
##keys
allah
frust
suits
uncon
unpre
manif
manner
##ulf
atroc
cries
crick
##ables
##laim
enact
bricks
brunt
branch
spit
spite
speed
upl
##enders
overall
grade
guest
disli
actively
imper
images
dram
##athan
flash
##icked
incent
closing
score
downtown
viruses
latter
makeup
##angel
apps
appla
prez
prefers
helpless
pope
1968
protested
##render
thro
remaining
medic
bills
careful
minister
shots
smh
organize
plays
underground
greatly
neighbour
seniors
nationalism
hunting
hungry
studying
monuments
skyr
infested
infamous
edison
stronger
strongly
invite
masked
headlines
economically
swear
seemed
137
surg
surrender
finish
finance
walks
captain
explains
profits
oppressive
masses
engage
victimhood
bench
2006
lights
borne
vision
hitting
solved
possibility
apology
patrol
experts
landed
trading
tradition
facilit
increases
viewers
currents
gays
grandchild
firearms
annually
stephen
discriminating
testing
ukrainians
christianity
hearted
assaults
effects
correction
semitism
fallen
adopting
##overished
suggests
normally
hypocritical
condemned
describing
financed
selected
selection
perpetrated
predominately
lynchings
buddy
leaves
graduation
shameful
ultra
3000
scottish
martyr
##sylv
escal
escaped
embarrassed
##hammad
meaningless
quotes
bags
worrying
catching
davis
territories
closet
boots
boycot
strateg
ironically
significantly
junkie
machines
appropriate
connection
tyranny
##peo
dumped
merit
dragon
contracts
satanic
dissidents
bombs
ilk
entitle
clothes
essential
powers
robberies
occupied
migrants
##guided
precinct
tweeted
unbelievable
stereotype
stereotypes
sensitive
flights
stabbed
persecuted
emotional
revenue
increasingly
motorcy
category
bangers
sanctioned
pennsylv
cockt
pissed
pardoned
0001f4a5
maryland
undermine
inequality
sabot
saudi
scumbag
newspaper
computer
demokkkrat
fundamental
lori
infiltrated
backwards
industrial
movies
whistleblower
pompeo
brilliant
explanation
condesc
dallas
skyrock
pennsylvania
350
510
67
78
84
aids
cain
cure
cup
dere
dial
dup
dwell
eg
fy
farr
gaining
gained
hord
ie
jose
jason
klu
lt
ly
lest
length
mz
moun
oak
pm
pound
ron
rot
rud
river
raging
tout
uy
uae
vat
##look
##a8
##awn
##run
##hom
##hal
##hell
##bon
##ios
##de
##not
##vis
##oked
##ovel
##pol
##gar
##gers
##t12
##uana
##can
##yl
##may
##mark
##fy
##89
tho
thumb
##atics
##ena
##ingu
##oux
##repres
##alin
bears
chase
chaz
chasing
##idly
##usi
##ola
##olith
stead
reign
reaching
##iments
pee
hait
##tering
heels
shade
shock
tray
asia
aspect
##igger
withdra
##umn
##umbling
demor
doom
dole
##sec
goons
##cel
depl
communications
unre
##orted
##ulated
poles
polish
donating
outreach
aligned
sheet
maher
##ghan
##ghai
exceed
##trine
##izz
brian
brave
brief
spr
spain
plug
proving
202
##gee
herman
reply
repress
offense
##ollah
##eller
disab
disinformation
loaded
resident
resume
moves
clue
##assed
pervert
struck
coaches
##quer
##ques
idol
leads
##oots
busing
belt
1980
1973
text
column
lawm
synd
twist
twisted
asses
recon
parks
writ
instig
payers
payments
payback
propose
newsome
contempt
memory
monolith
liberalism
fundra
colorado
impoverished
##resp
addicted
glass
differences
swine
sworn
godless
slim
slur
labs
panic
singing
chooses
confirm
pattern
guessing
explos
understood
weekly
membership
rapes
rapists
advanced
polled
cubans
engaged
mattersblack
benj
2007
posters
boom
sentencing
importantly
detail
judicial
convict
denying
respected
walls
brutally
silver
doctrine
##927
activities
##ysis
##phas
misery
misguided
involves
involving
resistance
favors
operate
operated
authored
announce
disgu
sooner
worthy
productive
despicable
statistically
associates
##224
extremists
correctly
maxim
##ijuana
burgl
tears
##ielding
celebrity
lowered
surprising
assumed
unfortunate
punks
crowds
hotel
photos
hostage
praising
heaven
trojan
leaked
projects
apartment
dreams
0001f926
crossing
necks
dimw
regulations
repeating
symbols
##hhhh
jumped
enroll
harassment
prosperous
savior
fingers
democraps
backgrounds
participate
reveal
islander
appropriating
dares
scarves
dependence
purchase
announc
aggressive
affects
rarely
treasonous
migration
precious
temple
##board
integrity
convenient
nickn
academic
cabinet
measures
bobby
betrayed
ruthless
congrat
helmet
fredo
antisemitism
absentee
prostitute
marginalized
feminist
policemen
demoncrat
nypost
premise
shadow
sociopath
pedophile
##check
frequently
douglas
dismantle
dedicated
lenin
rainbow
resentment
##uliani
scenario
alex
bunker
ellison
shanghai
coincidence
annoying
griev
perspective
carnage
applicants
nfac
wannabe
sheriff
lifestyle
libya
tragic
accepting
ambassador
boston
unpreced
grandchildren
mzlem
0130
160
177
73
800
822
821
bath
bbc
cp
cough
cuck
cats
c77
dese
ditch
dyn
diver
dancing
daca
fb
fest
fits
flaw
gut
gap
gib
gigg
hen
hiv
htt
ire
icon
kend
kings
kaz
kicking
kyle
lords
mf
mul
mud
mitch
nw
nah
nerve
pair
peter
rag
ride
size
sits
saint
tus
tam
tie
tea
uber
umm
va
vib
wiped
wolf
yan
yall
yacht
##aug
##rome
##677
##hor
##hey
##dam
##nt
##po
##pm
##paid
##person
##gen
##gus
##t13
##uu
##ciss
##wa
##wer
##win
##far
##fere
##fast
##fire
##ford
##49
##zo
##zos
thread
##erce
##inum
##atist
blast
blog
blackface
##oning
##ingo
##oul
##eday
anderson
##rep
whip
##lete
##otov
##alo
islands
##idel
lil
##olve
ster
stir
stim
stoking
amid
heal
shack
shared
##ura
##urt
trigger
##ocal
##igo
##thusi
##umber
weaken
##essions
fresh
rachel
##antic
sequ
##agement
##agger
##ulp
##ulus
polar
leo
leban
sovi
trumpers
afro
##ifiable
##abama
outlet
outlets
joes
alb
alph
alright
alabama
enthusi
whatso
anyways
##izers
##izations
brook
spooked
partial
knocked
offers
slap
grop
grant
grif
evangel
guine
disband
marry
maraud
marijuana
persu
droves
virology
clim
scale
perce
##reek
string
strings
coke
quarant
terrell
emphas
apples
preacher
copy
electron
electric
teeth
december
decides
twenty
assem
fees
##force
thriving
meddling
2011
offices
officially
recover
recomm
sinc
contrary
deficit
##ussie
organizing
interfer
interven
underage
chicks
chicoms
carlson
##azi
burns
someday
hunt
hunters
aborting
##lude
1024
turner
banking
invaded
winter
charles
##when
masquer
##obama
immune
145
singled
compass
comparing
compreh
finished
posing
founding
entities
artist
skinny
transfer
pastors
curious
rapidly
campaigning
oppressing
morally
constr
richest
richard
25th
properties
##attan
solom
questionable
1600
denial
generals
portra
traded
agendas
fearful
directors
complicit
outsour
nightly
80s
mentor
marketing
awaken
files
felony
marrying
improving
bullet
bullying
satis
servant
cutting
favored
biowe
##toe
fascism
avo
##appropr
straw
slept
proceed
2122
paj
magaz
influenced
##merman
request
descended
shortly
technically
intimidated
sucks
incomes
forgive
epic
perpetual
grounds
elimination
element
eleph
suppressed
dominate
counterfe
mandar
mandated
songs
virtual
rebell
quoted
regularly
logical
turkey
capture
entertainers
clinic
desperately
palestine
awards
disappoint
obsc
obsessed
gatherings
appropriation
engineering
tyrann
mccon
##ihil
blackmailed
purchases
flooding
cooperation
cooperate
teenager
punched
suspicious
tourist
##backs
guaranteed
tolerance
mansion
software
permit
broadcast
unbeliever
molotov
delay
branded
determined
hyd
surrounded
experiencing
subsidized
gentlem
colluded
0001f914
replacement
mongol
analysis
measure
bolsheviks
azt
sioux
0001f44a
spokesperson
congreg
requirements
hustlers
rogue
bastard
frankly
laundering
1976
somalia
policeman
retarded
demoncrats
demonstrations
initial
clarence
ultimate
ultimately
jerseys
##ablack
obamas
expanded
hahahah
supplies
opponent
confiscate
libtard
scheme
declaration
aggrav
rescue
giuliani
santa
tremendous
swimming
substantial
sidew
context
vernon
manhattan
cognitive
controversial
expendable
rosenberg
tragedy
crickets
applaud
condescending
fyi
farrak
klux
mountain
oakland
uygh
trayvon
deplor
syndrome
unprecedented
http
soviets
whatsoever
guinea
bioweap
1m
2m
267
61
811
biz
bend
bread
cad
dil
dating
dub
erupt
eager
fo
fab
fence
fff
fdr
gin
gift
hil
hip
honey
hars
ip
jp
jen
jet
jord
jussie
ky
kav
lung
nj
nan
nic
npr
nix
naming
pg
pic
pil
pets
pundit
ras
ray
rope
rural
roof
sf
soph
sque
tant
tla
torn
tony
tape
uc
vil
veg
viciously
wire
waging
wielding
zom
##awe
##rid
##rence
##600
##sp
##bor
##iy
##iarch
##die
##dog
##nec
##nba
##gle
##good
##tab
##uable
##cles
##yard
##mp
##min
##mers
##matter
##with
##wich
##work
##42
##177
thier
thurs
##erved
##inj
##inity
##acc
##acon
##esp
##atr
##atch
blacklives
##onven
##onio
##itious
##itable
##iser
andy
##reated
inject
##otes
##aska
##alous
bee
beer
00a7
##ionary
##opol
##opher
##owa
##icans
stem
stones
stalin
rely
rewr
##imacy
shed
tranny
##ocation
##ockey
##igue
##tha
##then
##umst
##umbs
wasting
##esto
abus
fron
frag
fried
freder
deem
afghan
matt
##antifa
une
unlaw
manage
##ortions
##ulates
##arters
atm
leagues
cring
cruc
users
##lahom
outstanding
joining
alter
align
altern
exerc
arent
plants
##elt
2024
repr
##ective
counted
novel
noble
tail
gray
gross
sake
sauce
intel
disney
##acters
acted
loath
imbec
indiana
adolf
antonio
dry
drown
##ounds
##ourke
flo
flames
##ulture
inconven
cloud
clips
##ansas
strife
coach
attending
nationally
muhammad
whereas
preaching
electoral
##kedown
corp
1963
1993
1972
##ogue
##ogyn
##ogatory
decimated
protestant
0001f5
0001f93
syn
letters
lethal
assert
assumpt
thrive
reminder
kidna
irr
##ervation
warm
define
collar
collaps
parad
interfere
talent
underlying
instantly
instances
chicom
##aza
##azz
endang
harry
proposed
nationality
movements
redistr
monsters
opens
bashing
5062
phar
handful
impose
imposed
impacted
skate
edit
insign
insisted
inspired
invade
##rooms
##roxy
breed
regimes
charlam
characters
hardest
arabia
slam
##obuch
labour
educating
steel
##crib
surf
subvers
finest
equals
entrep
oklahom
freaking
freaks
dawn
christopher
forming
considers
1860
investors
gangb
sells
damaged
damaging
retr
checked
boost
huawe
judged
solving
production
produced
armies
denomin
messiah
universe
treaty
fears
proudly
misc
misinformation
misogyn
debun
laboratory
seconds
distrib
resisted
dumbest
revol
annihil
commenting
##ika
clintons
##637
##6372
placing
occas
crackhead
cardi
behaviors
traveling
breakdown
screams
apparent
arguments
purposes
diagn
magn
ancestor
semi
capitalist
salaries
canceled
dailymail
encourages
ghost
suggested
technologies
klobuch
mouths
prosecution
nato
manufacture
mistreated
fairy
distingu
recognition
provides
hostile
praises
platinum
auto
suppressing
bowing
apartments
subserv
counterpart
karens
mandate
renounce
degener
crossed
contribute
sweep
tension
collection
##comes
jealous
##737
deranged
derogatory
turd
applications
colonies
sponsor
harassing
##vantaged
roberts
flew
castr
responding
necessarily
sympathizer
advocating
scrib
scarf
relationships
geez
punching
conclus
circle
scholar
dumber
dummy
ambushed
tedros
buddh
vandalized
tolerate
occupation
utterly
princip
unbelievers
fifth
option
villages
physically
addiction
subsidi
emotion
##oooooooooooooooo
hugo
submission
replacing
circumst
laying
tuition
woods
conquer
charlie
micros
##donald
pimp
switched
cockro
tricked
brazil
inherently
bronx
stripes
nypd
breathe
fleeing
introduced
eradicate
recruitment
deputies
documentary
vetting
advertising
screen
inflicted
neglected
##onymous
customers
fergus
tapes
demeaning
recipients
refugees
snowflake
fueled
hidin
uighurs
excessive
busted
excellent
scandal
capitol
judgement
discipline
wsj
reversed
unhappy
disadvantaged
smollett
50564
chauffeur
sacrifice
zimmerman
vatican
##maybe
disabled
reconstruction
benjamin
1776
kendi
nwo
stimulus
brooklyn
recommend
masquerading
solomon
hydroxy
aggravated
farrakhan
267b
fffc
nixon
tlaib
thursday
frederick
afghanistan
inconvenient
0001f937
charlamagne
entrepren
oklahoma
huawei
klobuchar
circumstances
ferguson
120
220
370
514
512
69
79
700
8f
88
814
815
9e
96
900
aims
b8
bin
breat
bik
bird
bitter
batter
bhr
cig
cous
dor
dime
dread
dimin
etern
fent
fart
fighter
fulf
gy
gam
gate
gag
gaming
gaff
hog
iowa
jill
kh
kap
las
mt
mall
mons
nam
nap
ore
ops
pam
pse
pity
pals
panc
pics
pork
pony
rash
rotten
rourke
sot
sore
sway
tag
tds
tires
tatto
vets
wis
wet
wade
wounded
yards
##lm
##list
##lash
##lined
##ault
##aked
##afe
##aunch
##rr
##ele
##every
##650
##sing
##ki
##kanda
##kota
##ho
##his
##hear
##bab
##bie
##iently
##d1
##dan
##dles
##nell
##oval
##gs
##gun
##t00
##t15
##cow
##culture
##yd
##year
##mare
##west
##field
##32
##zi
##911
##814
thief
theres
##erting
##inction
##ater
blo
blacki
##orate
##onic
##iching
##edient
##itation
##isible
ing
inaug
inappropr
whis
whipped
##aria
##arians
##areness
##asy
##alities
bezos
chi
chat
chican
chump
00a2
##ider
##usal
##owers
libr
##eman
##olent
stack
stamp
stee
stacy
stink
staunch
items
haired
shy
shore
shorts
shaking
trigg
tramm
##ocumented
##aders
##adays
##ige
withhold
##these
##kegee
commits
demise
wasted
##sexual
frame
fraction
##ateful
suv
nefar
notion
##rator
##ilized
theirs
##anti
congo
converted
unity
untr
uninformed
##agers
##ulating
##ooking
cray
crush
crushing
craw
donkey
##iffer
outcome
alarming
exit
brah
upr
ploy
##ights
##eled
partially
##ends
2000
indo
presumpt
slavers
overd
overweight
grown
graff
guards
guests
sahar
disreg
dischar
nowadays
supportive
acb
resists
drain
drives
drove
drops
##acey
flip
moon
inciting
lawn
laura
lakota
clo
scold
violations
perps
betting
struct
lefties
murderous
coat
##underst
consult
consulates
appalled
rioter
##2020
1921
1930
keith
lawful
popularity
throws
removal
medal
median
medium
believers
daylight
sink
gene
##othe
default
interaction
carp
carav
payment
shooters
senseless
terrorize
##ancies
monument
monkeys
bash
bases
relate
soup
##issipp
kamel
creation
creep
inspir
insanity
invaders
##ahu
winner
regret
regards
##who
behold
behave
ww2
dealt
candice
slum
militants
militias
130
potato
congresswoman
##crap
singer
fines
patient
malcom
caps
publish
elsewhere
gangst
signing
advised
location
purse
lighter
extent
truths
cheering
cheered
questioning
questioned
setup
patriarch
mississipp
trapped
trauma
ports
treats
fearing
##uffed
discred
concerning
##ipper
misunderst
predicted
complains
nightmare
genocidal
healthy
robin
narciss
awareness
estimated
esteem
##porated
cartoon
operations
ethic
0001f496
authent
urging
##194
##198
horror
statistic
##633
##631
jimmy
storm
acceptance
creatures
covering
declined
devot
carried
paul
magic
consideration
gangster
barrack
furthermore
promotion
naturally
lyndon
ranks
dictionary
laughable
mistreat
mistaken
reportedly
epis
epstein
practically
kenya
metro
discussions
##iiii
trusted
cowork
bowman
tencent
limits
separatist
preferential
rounded
contribution
moronic
comprised
coloured
quota
midnight
##enched
package
applies
applied
deterior
jessie
pedo
enriching
amendments
sponsors
romans
##after
endorses
endorsing
##aaaa
labeling
tribalism
booth
petty
split
embraced
succeeded
gathered
variety
screwing
complaint
junkies
advocates
tyrants
##worthy
holidays
kimber
undocumented
flooded
suspic
suspended
vehicles
doubled
ilhan
aggressively
dressing
cloths
translated
graduates
tortured
widely
##guard
unsafe
illiteracy
dui
##holder
deceased
unwed
unwilling
coffin
stabbing
surrog
francis
wilson
analy
categor
accusation
buffalo
bucket
cookies
helmets
demonstrated
butcher
launched
collaborator
antisemitic
consistently
infiltrate
egyptian
sector
somali
0001f4a9
mortg
mortality
sowell
##helm
##because
assassinated
merchand
