[PAD]
[UNK]
[MASK]
[CLS]
[SEP]
!
"
#
$
%
&
'
(
)
*
+
,
-
.
/
0
1
2
3
4
5
6
7
8
9
:
;
<
=
>
?
@
[
\
]
^
_
a
b
c
d
e
f
g
h
i
j
k
l
m
n
o
p
q
r
s
t
u
v
w
x
y
z
{
|
}
~
##o
##a
##d
##t
##e
##r
##i
##n
##g
##f
##l
##m
##y
##0
##b
##3
##s
##c
##k
##u
##7
##w
##p
##8
##9
##4
##6
##2
##v
##h
##z
##x
##5
##q
##1
##j
th
the
##er
##in
##ac
##es
##at
bl
##an
##ack
black
##en
##or
##on
an
##ing
##ou
##ic
##ed
##it
##is
to
##ll
and
##re
in
of
wh
##ar
##om
00
##le
##ot
##as
##al
is
be
00a
ch
##id
##us
##ent
##ion
##op
##ve
for
that
##ow
li
##em
##ol
you
on
##ist
chin
##ers
##ut
are
##ican
##ir
st
##ese
##et
##ill
00a1
chinese
##un
re
##ly
pr
##ay
it
##ld
pe
ha
##im
he
##am
am
##ter
##ver
they
sh
com
##os
peop
##ur
people
tr
##oc
as
##ith
amer
##ad
##ig
##ves
with
whit
##ke
##all
##th
##ation
all
white
##um
##ct
comm
have
dem
was
we
##est
do
american
##ould
or
by
ab
##se
##ess
##ity
go
fr
##pp
who
his
su
##ate
00af
this
##ce
ne
##ch
rac
##ies
not
##st
commun
de
af
##rat
##ust
##ian
##il
##and
their
##ant
mat
lives
if
##ere
se
##ore
##out
un
con
man
##one
democ
democrat
vot
matter
##ag
##ice
##ul
##ort
##art
at
##ump
##igh
##oun
pol
will
##ain
so
##iden
##oo
le
from
00b
cr
trump
about
##ally
biden
but
just
has
afr
me
them
wor
like
##use
##if
##ab
us
##la
can
out
more
bec
jo
what
al
##der
she
##ment
en
ma
##gh
don
##ew
##ause
african
would
##ive
any
ever
##ish
wom
##ear
get
americans
##king
ex
##ome
ag
br
##iz
ar
up
##tr
sp
when
pl
##iv
pro
because
##ight
##ost
racist
were
part
##own
how
##el
##her
police
kill
than
##end
##ime
there
blm
##ica
kn
##ose
##ther
##ber
ind
vote
##ks
democrats
##ident
##ong
say
##ame
year
##ie
pres
community
##ge
your
##oy
##ud
every
her
##ough
##ap
only
rep
supp
20
want
off
sla
one
jew
##ect
##ia
##wn
joe
other
##ard
##ell
##oll
america
##ous
president
00b0
thin
##pan
no
coun
##hing
##ial
over
##ast
ta
being
communist
##ities
ev
00b1
##ue
blacks
gu
gr
some
sa
did
int
own
been
##ated
##od
party
##ib
dis
##ep
##ions
now
woman
why
lo
act
##act
know
##ich
support
##ism
should
##pl
##ile
does
mar
call
im
##ide
my
##ence
our
##ood
then
##panic
hispanic
again
indian
these
think
##are
ac
##ind
ob
countr
##ub
pers
him
had
most
many
vi
need
see
res
##ting
ad
ant
##ound
##als
dr
##age
person
##ens
mur
##ace
000
po
##uc
years
##ama
vir
men
##ip
##ild
##gr
fir
##ath
fl
ph
##ick
##ult
loo
inc
##our
mo
##other
##ft
fa
jewish
##iot
even
##ors
##reat
##ations
##ict
##ine
may
##pt
la
new
##urn
##ure
##itic
##ying
##ates
those
##ass
cl
killed
country
sc
##ists
down
virus
##arr
prot
crim
viol
going
first
into
back
per
##lect
##ents
gover
##ug
fam
govern
time
too
bet
lat
##ff
women
china
right
guy
against
which
##ans
##ade
##ec
left
str
##ree
prob
said
make
crime
##estr
after
##ory
##ubl
murder
##ving
##ily
mill
##qu
co
stop
##ied
child
qu
lead
att
##way
politic
##so
id
nation
##ang
##sel
racism
liber
ter
cons
obama
##ea
also
em
##ire
##und
##oup
where
app
thing
mu
nothing
##ty
pre
hel
way
##oot
could
##ign
##ons
destr
acc
government
cop
bus
latin
another
##ach
##ary
race
soc
##int
##00
phone
elect
much
same
bel
##fe
##ked
real
cor
##old
help
##1f
pop
mex
riot
crimin
hist
##ull
##lem
ke
##ating
while
dec
te
##ord
##og
##ians
world
really
##ery
##ase
tell
##itt
##ative
well
0001f
protest
col
still
law
good
let
##ren
19
##oney
hate
##amp
sy
##ool
##ved
popul
run
tw
mexican
sch
take
##ious
ass
group
money
des
##hood
##thing
fe
put
##fer
thr
##eg
got
##ually
##ought
keep
##gan
##for
rem
asian
##less
##iness
belie
look
##rem
##pr
problem
day
its
high
very
rec
doesn
kid
old
sin
voters
show
opp
republ
offic
children
med
latino
death
business
##orn
family
sup
bill
care
##bs
##erv
##ite
destroy
brown
##ands
terr
slaves
##ful
ir
population
min
work
communities
won
marx
antif
##ale
start
bu
fem
fol
move
gen
shot
whites
organ
big
##pect
##ance
202
made
never
contr
fact
antifa
##day
##ower
201
##med
##fore
here
republican
life
##oth
done
war
##ned
##ority
##up
##able
sm
since
op
def
##uss
ca
par
inter
organiz
coll
tal
##ning
bab
loot
violence
##ock
##ders
play
##con
wr
history
female
##oss
slave
##kes
happ
leaders
ain
##ather
el
plan
##ible
##av
great
inst
bad
under
saying
anti
social
chic
vict
dems
neigh
neighb
before
stat
##ims
##uring
##uct
killing
##be
##read
##ploy
car
cit
##ave
##ical
##stem
pay
end
state
system
suprem
shoot
school
##ago
##az
doing
harr
folks
citiz
city
cities
##get
burn
kids
prop
ve
sen
trying
media
didn
cops
ur
##ress
ill
actually
##cent
##ement
##ise
million
2020
must
comp
called
arr
chicago
##we
##ically
ro
##ail
harris
give
wat
says
long
##gress
##selves
som
##iend
mean
##lf
anyone
imp
terror
movement
wa
stud
national
cour
hun
##ng
better
cont
maj
poor
neighbor
use
##gn
lies
come
##ues
abort
num
es
##alf
red
young
mon
##ope
##very
##ize
cult
##anc
believe
mem
attack
power
sure
last
##ited
bas
##lud
##ugh
liberal
##ets
##ee
##bers
fund
##ra
##ives
color
through
babies
two
used
spea
citizens
##ition
rel
friend
themselves
slavery
hand
russ
cla
sk
##ken
around
point
news
half
sou
##iss
##ings
anything
lot
stre
states
gun
turn
##ants
##ual
kam
litt
inf
violent
supremac
##ry
##form
cre
little
et
hou
##enc
enough
maybe
conserv
ban
##cept
vp
##aid
democratic
neighborhood
##ially
##hip
criminal
##red
iss
##ering
##ways
voting
love
strong
free
ins
organization
name
live
ed
10
ign
somet
##ange
##ala
etc
##res
list
includ
pand
resp
##uth
priv
political
election
inv
exp
##upid
non
##ead
today
##ash
dif
##ason
stupid
votes
always
##cc
during
##vid
##let
calling
inn
millions
find
##ivers
arrest
isn
add
far
pick
##thers
house
low
mus
##ars
everyone
##ak
marxist
win
yet
##ro
##imes
yes
##ution
allow
percent
ll
##ah
drug
url
illeg
reg
kamala
prom
##ployment
both
##eral
murdered
char
fail
something
##yp
##ison
nor
##ts
hunter
camp
hard
criminals
home
mil
head
watch
beh
##ics
word
mas
##ru
##man
##olog
##ately
unt
getting
arab
face
stand
wee
wants
econ
##ward
##ett
econom
bre
hom
polic
differ
gl
cle
tax
##ention
god
using
cand
##ently
##ivil
##self
##idd
working
owned
##xt
deal
##ized
sw
##osed
seem
sl
vide
ital
feel
ge
thought
##aring
100
civil
##ody
needs
##uck
##son
##ably
##arly
until
##ters
##alif
unem
contin
sim
##ike
##ised
fake
irish
majority
away
ser
50
boy
dep
leg
things
alread
already
pot
liberals
lab
##tain
dead
happen
thug
##ality
##ush
imm
##br
fight
times
##kk
##used
wrong
##han
milit
##led
##ute
ste
##ob
without
congress
someone
esp
educ
giv
##igr
less
##les
chr
reason
compan
geor
sur
sub
usa
disc
lar
sing
00aa
##ember
sor
culture
hum
pan
##alth
such
sec
making
claim
doll
covid
next
likely
ra
##ted
betwe
running
ignor
unemployment
between
rate
cho
adm
privile
##rupt
00ae
##istr
south
oh
pret
instead
equ
pos
##ox
racists
fin
told
conf
businesses
open
few
found
rest
looting
father
guess
skin
ok
pat
##ven
having
##ortun
ent
musl
thous
##ames
true
flu
read
famil
wal
##ired
control
each
mal
jobs
neighborhoods
sold
##na
officers
italian
##cer
cap
##arch
##ook
##ecially
cause
fun
##land
africa
publ
##iet
##gest
##ered
##ream
##armed
##ote
ref
job
riots
eas
remember
##its
candid
fre
united
plant
especially
report
mayor
probably
0001f6
friends
conservative
##ior
threat
trans
##ades
wonder
jama
tot
inves
##omin
republicans
past
##ged
rights
midd
self
billion
expl
victims
##umb
aff
aren
else
students
families
gir
##ling
form
order
consid
peace
repar
unders
christ
##wh
justice
crimes
best
##ork
##ollow
racial
makes
idiot
month
##ced
##ott
place
prof
everything
quest
ident
middle
underst
hold
countries
week
gang
##ject
change
parent
immigr
wu
##air
art
video
follow
##rael
##ix
israel
00a8
trib
mark
including
cur
paid
##ny
##vers
try
gets
##ellow
murders
prison
owners
invest
sign
become
members
speak
13
full
unarmed
george
eff
##los
elected
corrupt
record
oppress
terrorist
rap
protect
single
##oke
adv
##nc
number
thousands
da
##body
sell
respons
reparations
18
cent
##ey
##ator
##vel
public
girl
wuhan
har
lost
poll
##ba
##oud
##imin
##ither
eng
flag
campa
##io
##ending
simp
##icul
##ional
commit
##ount
bring
communists
plantation
campaign
pur
victim
illegal
privilege
mass
tar
##ased
exc
dam
alm
male
##ared
office
understand
main
##unch
whole
means
schools
wait
human
15
##ever
##ond
least
abortion
ear
los
loc
##oub
##ont
##tern
officer
course
##losi
ben
matters
gre
##ler
looking
socialist
##iter
00ad
##emic
ens
talk
kkk
pass
once
except
pain
ret
ligh
##ief
talking
chec
politicians
hat
mor
##ented
military
ho
kind
anth
pelosi
thugs
jamaican
mind
##atives
term
accord
decades
others
##ices
200
cond
const
ext
class
post
yea
ones
ask
seen
##ude
##gry
street
issue
rich
ago
intell
planned
##uction
fed
blame
##ald
truth
crow
repres
desc
different
candidate
son
sent
bo
che
innoc
almost
##ness
abs
##anger
##iously
born
vis
succ
wouldn
started
came
might
looks
burning
dollars
muslim
hey
unless
either
tre
##ner
among
agree
spec
evil
histor
buy
27
three
thinks
problems
import
education
identif
according
det
hope
hair
minority
entire
ny
native
demand
taking
opportun
deaths
proper
dnc
sn
##vi
coming
troll
leftist
societ
build
sol
sad
went
angry
took
created
hit
jud
though
##ank
##ments
destroyed
systemic
innocent
success
16
rid
##lease
##ured
##oyd
mostly
groups
gave
hu
lol
sus
##ret
wearing
floyd
steal
25
hill
poss
hell
exact
rioting
russian
economy
parenthood
none
##ined
arm
seems
question
yeah
ey
sit
##ility
along
prod
king
push
sick
##ove
##uff
living
##ures
##anda
conv
supporters
##irect
40
ap
cer
den
set
##li
##reg
wasn
telling
shooting
##lete
light
eur
jail
##att
spy
bar
naz
##ient
##unk
worse
desp
ce
died
mess
sound
##ton
goes
listen
anthem
cc
miss
##ger
block
##ides
lear
propag
large
patr
freed
mother
deb
univers
knows
allowed
##ettle
ensla
##acy
##els
hispanics
respect
coron
interest
exper
hon
land
mich
treat
trad
trade
##ages
gener
given
society
pu
rad
##hn
hear
##ortion
##iff
jews
ball
hur
uk
tra
cann
kne
case
fac
fear
hands
##inc
##ases
##aged
enfor
brut
ccp
sil
chief
reform
##verty
john
agend
poverty
appro
days
players
due
direct
wall
anc
stay
wanted
saw
leader
policies
er
hol
nba
side
##ience
##gin
##amed
##izing
numbers
continue
males
europe
welf
colle
welfare
fig
typ
##fl
streets
##ology
line
##ats
##using
suff
cauc
court
##ony
##ones
##ilt
behind
company
hor
kettle
lad
##ped
taken
guys
complete
target
check
property
doc
ms
val
##ators
##ark
concer
##orts
donald
incre
##itted
##ample
responsible
certain
ath
div
##pet
proud
##ully
tech
##eges
glob
60
sever
##ife
##ished
repl
acr
supremacist
30
beat
##ams
pandemic
12
##ys
grow
##undred
colleges
inner
agenda
across
hundred
##ipp
##sw
demon
sex
activ
result
college
##asc
pred
small
##ughter
bank
issues
propaganda
lying
pull
##bi
##ense
##ising
toward
shut
destruction
based
pandering
panthers
14
mis
##ck
example
brought
spread
progr
account
curr
global
divers
jes
vo
##ne
##ph
##uses
##ards
view
marxists
##cond
guns
invol
##uly
##rect
##ether
enem
failed
fool
compl
qualif
exactly
fox
night
warr
blue
toget
##verage
##aining
brain
imag
protesters
genoc
labor
represent
together
die
jack
mom
mention
san
force
forget
front
thinking
laws
destroying
2016
lowest
federal
11
90
ru
##lam
##iting
top
seg
second
supporting
higher
##ught
north
total
enforc
distr
##cle
weap
obv
resist
protests
defund
funding
whether
rece
health
known
idea
parents
rob
doub
gay
##ef
##ern
story
outs
controll
homes
soros
admin
simply
mult
rates
yellow
answ
whate
##ived
##ended
rioters
##others
whatever
dumb
fal
##erate
##iding
unf
##ague
grand
ide
realize
words
sorry
please
##ming
himself
workers
russians
clean
fighting
market
food
nar
##lish
##itution
##irus
washing
##antly
assa
funny
purp
huge
calif
fire
hates
mr
ment
##rain
##ier
rev
wealth
voted
##aps
attem
prev
cele
aw
fat
##nn
##por
##ots
able
politics
##ancy
bor
cart
coup
est
send
##lu
blood
##ital
##itch
lie
worked
expect
marr
general
smart
mask
several
genocide
##rimin
heard
impr
fav
address
companies
intellig
fel
##eign
##ins
##ops
enc
0001f3
0001f4
2019
pupp
enforcement
eth
fbi
port
vice
york
##ake
##aud
step
##ained
##ornia
iran
pretty
hillary
auth
cath
lose
wish
##gy
##fully
ann
soon
disg
coronav
dude
fil
ger
##par
##ung
comes
crap
disres
supremacists
discrimin
imagine
coronavirus
liter
##mm
##ban
bro
##ected
employ
conservatives
months
caucus
false
california
disrespect
sat
serv
level
worst
india
supposed
speaking
0001f60
kneel
cathol
forced
races
##ified
leadership
arrested
giving
freedom
radical
washington
nfl
##ball
chur
rele
##oci
##ains
##idents
action
close
opportunity
danger
test
##orities
stuff
worth
ignorant
product
ukrain
church
gar
rather
comment
critic
shows
##istration
former
profess
horr
cu
##yn
##ided
deep
##ific
##ibly
wake
absol
brutality
fur
nice
tv
west
##wood
##ping
##aming
within
meet
##ials
seeing
clint
protesting
defin
shootings
major
##view
lady
bunch
holl
##onna
##quote
associ
east
hating
hyp
ow
##icle
gov
fraud
plac
mob
emb
oper
relig
percentage
secret
christian
##where
blockquote
segreg
controlled
narrat
absolute
average
names
nancy
##icking
##ision
islam
##uted
dont
accept
sym
statement
##ences
homic
holly
air
cut
jim
net
##t1
##iver
foreign
heart
leave
##iving
idiots
treated
enemy
administration
disgust
70
dom
occ
##aking
##ges
##just
stor
enter
exist
actions
drop
196
benef
cannot
athlet
assault
couple
##ten
##ces
comments
wear
crack
afraid
progress
however
correct
teach
statist
member
happened
favor
##like
##sh
anarch
chang
##oph
asked
appar
0001f9
regard
behav
choice
investig
effect
extrem
hundreds
answer
literally
80
bull
book
cnn
mate
##orter
##rew
press
shir
biggest
looters
supremacy
bi
les
xi
##ging
##ms
##ural
trave
##igin
economic
break
totally
tribes
clinton
domest
creat
##ines
whose
##ows
areas
truly
voter
thank
corpor
turned
taxes
immigrants
important
##attle
narrative
24
gone
hous
sle
##ird
##urs
outr
supported
march
scream
playing
happens
drugs
peaceful
sounds
domestic
card
dat
fasc
mast
##dd
common
dog
dispr
##ept
supports
stra
cover
decl
senator
descr
suspect
ethn
foc
foot
##to
##ises
chance
neg
##ste
dev
##idence
max
caused
##eech
watching
posit
selling
attempt
athletes
av
cases
fut
##yr
##ero
proc
lebr
arg
speech
count
helping
deser
funded
masks
depart
oppressed
border
hollywood
17
carr
mag
nations
wife
##aire
##ral
##ida
area
origin
##essed
africans
##ively
folk
baby
terrorists
walk
involved
warren
21
dark
f0
tired
vs
vac
##olution
##eth
##ocr
indians
stopped
helped
facts
relations
claims
losing
successful
ancest
completely
lesb
disprop
9f
lack
mad
pa
sem
##oint
##ring
committed
abol
flor
consider
damn
green
universities
honest
bur
fall
four
mou
rul
vers
##oved
##tim
##ij
##isc
refer
##ational
sug
appear
influ
congressional
finally
capital
special
lebron
disproportion
di
dad
wing
##ushing
##entia
notice
couldn
throw
sense
german
masters
cub
iv
na
sal
##ik
##ink
tried
##ization
interview
eastern
learn
hurt
dangerous
fellow
##ael
##iate
##per
##une
##urity
spo
##thern
adop
##athers
minorities
statues
attacked
##formation
##encing
legal
local
jesus
##stein
florida
gh
gop
##app
##by
##ites
town
dementia
nearly
##aging
cance
kills
##ashed
raised
gangs
puppet
0001f602
apparently
22
barr
cost
gonna
##fact
##lers
##mer
##omo
requ
comb
intim
##epy
putting
happy
paying
threaten
board
doct
district
data
ethnic
bs
cat
fill
fix
nomin
##ored
##oming
begin
short
demo
##rated
uncle
##osec
##icted
super
norm
earth
message
techn
towards
diverse
married
encour
catholic
further
absolutely
behavior
future
kept
pict
tear
##over
##well
##ining
##ann
##itage
bea
##irm
prosec
craz
ali
heritage
##aph
team
points
create
articul
return
michael
articulate
hood
##eed
##lus
##aced
token
##osing
unb
plus
senate
ignore
promot
equal
position
english
nyc
eyes
jackson
outside
cuomo
hypocr
ancestors
mouth
suggest
bal
kl
##ma
##bc
##erc
##ury
manu
yourself
owner
nationals
##ency
policy
difference
girls
excuse
identify
nazi
patriot
netw
aoc
james
kick
led
##bl
amaz
##ivid
knew
security
weekend
msm
current
ba
dict
jap
lyn
named
pen
tick
##atic
tom
##iday
deli
##oof
laugh
aborted
cheap
270
celebr
straight
intimid
japan
23
lower
mist
nat
nuc
ran
woke
zero
##ential
suc
unlike
bright
brother
armed
individ
##ield
incom
respon
condem
army
enslaved
concerned
manufact
fathers
ml
##asing
cha
youth
held
##stream
manip
##oooo
exec
##endent
##ibility
actual
latinos
199
intern
russia
boys
surpr
mainstream
possible
voices
nucle
manipul
ach
hers
##aur
##ender
##utes
shar
asking
prov
slaughter
event
calls
##iple
stealing
revolution
products
statistics
extreme
base
squ
##aw
##hold
injust
alleg
##iful
spies
knee
keeping
cares
weeks
restaur
following
paint
constitution
judge
purpose
segregation
describ
beaut
bit
bir
dc
dir
##val
forg
##ument
union
takes
save
driver
assum
showing
abortions
choose
0001f62
nuclear
26
bought
cens
lou
pushing
##ino
##aching
##ulting
evidence
log
immed
fair
197
buying
breaking
reported
nazis
trait
resisting
unfortun
lesbian
ivank
crazy
response
fought
pun
path
sist
##dc
##iers
##0s
##ued
##haps
##instein
##unt
pract
alone
perhaps
later
emp
tex
attacking
basically
financ
article
descend
achie
om
ppl
ut
##ease
##mber
##ction
##ilar
select
became
brit
plague
thanks
mayors
perpet
governor
clearly
dist
hus
kore
ol
wes
##cy
##iti
##vember
##rats
brothers
hero
november
ground
fault
reality
##ogn
twice
feinstein
opin
elimin
dollar
muslims
considered
immigration
predomin
released
travel
35
bud
ele
early
hot
hour
pie
##rop
##more
##wise
##ico
##imate
##oses
trash
near
disq
incar
recogn
caught
clear
simple
crowd
experience
qualified
places
lynch
ivanka
ep
roll
##set
##za
##19
##enty
sports
supporter
##ground
income
remind
videos
pretend
affirm
hole
trolls
cartels
vacc
##timore
disproportionately
western
disqus
incarcer
34
mot
pal
##aff
##yle
##uation
##ompl
shit
upon
particul
needed
personal
moder
highest
recently
built
urban
wins
charge
panther
doubt
baltimore
louis
affirmative
rese
##icks
prim
commie
canad
agre
presidential
##ensive
recent
2018
standing
potus
discuss
confed
explain
historically
barack
program
programs
weapons
obviously
portland
homicide
disgusting
network
45
fine
host
##ii
blaming
##utions
pra
tro
span
plat
provid
phil
scared
quite
attorn
accompl
explo
##aires
hatred
brainw
ghett
ticket
beautiful
texas
attorney
game
jer
wow
##oid
##cil
##any
##itter
store
heav
##law
spent
indep
##graph
incred
##igned
believes
defend
causing
investment
oppression
daily
hitler
multiple
normal
cam
met
pock
##dy
##ees
##iately
##book
##ane
ang
information
##asio
shame
trust
conn
cred
mail
##apol
suppress
grad
appoint
lets
citizen
attacks
failure
walking
christians
building
johnson
certainly
aut
cow
ul
##0f
##kn
##uel
##zy
lied
seattle
lea
cry
otherwise
council
leftists
attention
accent
fe0f
billions
killings
raise
waiting
passed
horrible
incompet
research
47
75
ah
bow
foun
mod
##ole
##atter
often
##etic
proof
willing
##ify
project
murdering
officials
career
starting
bigot
private
serious
claiming
prevent
injustice
immediately
300
500
bed
domin
eld
ken
late
mart
##line
##band
##how
thats
lib
stated
troub
mao
anyway
everybody
phot
scott
##ugg
politician
decent
opposed
minne
supreme
##ances
southern
illegals
corruption
##velop
intellect
apart
silencing
european
weapon
obvious
discrimination
department
dream
linc
ten
##lant
##uce
##ouch
lim
##oln
reject
pray
##anted
prove
safe
mexico
organizations
burned
insult
promises
claimed
rape
demanding
wealthy
270a
##apolis
lincoln
28
rice
wind
bloc
blind
##uts
asians
subs
develop
separ
atlant
counter
virt
moving
prefer
##itten
esc
refuse
easily
detro
eye
growing
embarr
unfortunately
elder
minneapolis
08
bord
fly
five
kar
mix
picking
ren
##ax
##te
##ners
##bed
whom
door
deg
worry
uses
nobody
somehow
picked
allowing
##verse
treatment
type
rule
intelligent
intelligence
0001f3f
changed
0001f92
shirts
housing
maxine
embarrass
borders
bern
jan
lock
mand
round
song
##ka
##20
##ina
tool
##eter
nec
deals
age
residents
##aches
twitter
descent
water
student
lots
infected
include
invented
regul
charged
equality
soldiers
easy
committing
moron
despite
ukraine
religion
japanese
detroit
07
06
31
box
dim
hop
sand
swe
tens
##bing
##bol
##pir
##vie
##atory
chick
compr
##ceed
##str
##andon
cross
trumps
anymore
##elf
colour
colors
contrib
collect
admit
##while
historic
figure
replace
received
service
herself
founder
aust
bes
nons
root
sort
##down
##ta
##row
##fect
##ble
##sy
##joy
##acp
##ications
bey
share
doz
communism
##ifican
plenty
offend
##action
shouldn
##pton
quot
leading
employment
meaning
##ission
##ological
seriously
subur
holding
debate
ballots
increase
owens
stores
regardless
amazing
mlk
opinion
bott
dying
pig
rally
##each
##nes
##que
##ene
forward
lif
reb
pros
haven
goal
joke
maf
therefore
repe
county
##ips
looked
showed
largest
damage
interesting
influence
doctor
birth
bag
iq
je
mid
que
tur
##rd
##ps
##zz
##ench
##ories
##iced
##arks
##iment
##key
webs
##antage
mattered
attr
worr
guil
room
role
longer
cultural
regime
dealing
openly
capt
refused
daughter
polling
hoax
values
garb
symbol
progressive
focus
positive
abolish
cancel
british
confederate
09
dav
gain
pack
ped
rh
via
##com
##ham
##atically
##usion
lived
trill
defe
##ounce
bidens
becoming
alive
guilt
##itely
meanwhile
camps
founded
considering
tribe
harm
approval
typical
meeting
govt
naacp
catch
##ropr
platform
beyond
29
der
eat
fit
kong
restr
ties
##men
##pay
third
##iny
##arian
##arily
##vement
##ille
sho
peoples
orange
enjoy
##berg
viet
appl
assist
##ference
territ
planet
music
similar
questions
polls
terms
estab
kneeling
creating
palest
mafia
guilty
32
mothers
ris
yell
##go
##ements
##illy
hearing
##osen
##iant
meant
##ifically
enr
indust
##ape
faith
perfect
tells
colon
wars
neighbors
compet
##ails
throughout
taxpay
##ledge
okay
effort
responsibility
massive
grew
deter
situation
generation
traff
directly
outrage
picture
chaos
predominantly
spanish
##ificant
85
99
aud
award
jump
kiss
##ov
##au
##nam
##my
##hh
##ester
##isl
prior
amend
abuse
goog
##pper
sheep
spend
spons
disapp
disease
moved
clos
goods
removed
master
slow
educated
candidates
harass
opportunities
version
technology
husband
elderly
nonsense
website
hong
hang
lang
sour
##iod
##vant
##acter
beating
libs
reach
amount
sha
killer
everywhere
sav
clin
period
elections
##ords
oppos
2017
written
instit
statue
household
georg
##whel
advantage
central
painted
specifically
university
honor
concern
activists
voice
ideology
employees
entertain
screaming
fascist
deliver
condemn
provide
descendants
piece
vaccine
troops
cod
eating
hide
rom
sum
sanger
ver
zones
##light
##30
##ville
##inated
##icip
##rec
##terday
shop
neck
agents
##udes
##aper
overwhel
##uced
attit
tele
highly
greatest
socialism
endors
studies
speaks
label
subject
pretending
billionaire
tribal
century
convin
traders
replaced
##ipped
broken
occur
avoid
process
adopted
combined
filled
restaurant
dirty
incredibly
photo
georgia
boot
body
cas
cash
fle
fast
hire
##iest
##burn
##ket
##uals
##ha
##ana
anim
##alized
##alwell
##olen
##istic
star
##thy
above
league
anywhere
upset
wanting
loves
##acted
personally
scam
strugg
access
ended
compared
rober
basement
banned
yesterday
character
swalwell
##ucky
happening
bringing
locked
visas
sitting
generations
suffering
results
definition
##know
vietnam
cust
cdc
fing
fist
hated
hired
nom
tim
ug
wed
##foot
##come
##path
##ination
##arant
##oms
##erson
##ocking
##aded
##ession
democr
##izes
somebody
acknow
##ube
driving
dressed
background
lawy
keeps
terrible
iron
senile
continues
boyc
legisl
privileged
ridicul
pulled
negative
unborn
sharpton
alleged
hours
modern
incompetent
atlanta
langu
1st
bure
cly
dna
lb
loud
pet
##aa
##uary
##eren
beij
stick
wel
abiding
works
##ift
##tra
spl
particip
firm
closed
schiff
##formed
remove
republic
marxism
funds
##itional
respond
glad
slight
protecting
wallace
eric
suffer
value
increased
##ipping
diversity
sanct
defunding
definitely
maga
cuban
succeed
brainwashed
necess
prosper
beijing
36
boo
dims
fans
gather
kent
kany
lands
owe
rat
rise
var
weren
##iring
style
itself
commerc
sudd
note
taught
granted
scient
screw
quick
liberation
embr
busy
belong
millionaires
insur
promised
deadly
ignoring
immigrant
pushed
apolog
listening
sympath
sleepy
germany
klan
assume
mixed
google
overwhelming
clyburn
sudden
400
cast
jung
lem
vast
##ray
##ergy
##ley
##oper
stolen
release
amp
whitey
weak
##sequ
manag
##elly
disag
marg
obs
drive
##ourn
scum
strate
decided
cared
waters
impeach
useful
pander
swamp
ignored
significant
identifies
possibly
complain
moment
extremely
ridiculous
language
kanye
mach
nav
nurs
tact
ya
##kers
blah
##eng
##ication
##itarian
##ref
##ota
yout
##umer
##iance
##iled
search
join
##ival
##oyal
acting
##ples
fired
quit
appropr
letting
minutes
socialists
veh
road
related
turns
facebook
fatherless
efforts
advoc
engine
visa
historical
convention
lightfoot
activist
double
felons
football
pawn
0001f62d
accomplish
intellectual
bernie
besides
risk
nomine
95
bub
dar
dies
dump
field
gates
gold
junk
six
sending
tyr
##uing
##wan
island
chose
forever
likes
ree
reas
demands
abandon
indoc
intention
scar
conspir
protestors
believed
2021
smo
played
wrote
##ucture
study
failing
surv
affair
tariff
learned
mentality
author
association
benefit
threatening
traitor
punish
ghetto
connect
trouble
palestin
gee
gives
href
jones
mc
##ih
##gl
##fr
##ss
##pting
##jud
##anna
tow
##arter
##oles
staff
reve
##ament
ash
##ading
suck
dear
unif
convers
##ability
expr
brib
myself
drag
incident
apprec
0001f1f
195
designed
feed
medical
basket
citizenship
creepy
##enced
heads
serve
deport
depend
potential
larger
ready
transg
advance
purch
holiday
announ
satan
corporate
corporations
deserve
relationship
rules
manufacturing
slaughtered
forgot
sisters
independent
pocket
reasons
indoctr
bul
gas
journ
ka
mer
ple
wit
##tw
##fs
##mail
##bre
##bur
##cing
thom
theft
##acher
blake
blackmail
##ales
liar
stood
stands
##vert
friday
und
##ulate
hasn
anybody
present
offensive
owns
diss
##aret
flood
movie
lazy
backs
governors
accused
hateful
millionaire
handlers
turning
promote
slog
reports
jamaica
profit
identity
constantly
europeans
pulling
currently
jesse
aware
levels
professor
original
demograph
prosecut
surprised
credit
territory
establish
lbj
nominee
aka
bom
cy
ice
kim
punch
rub
ted
##ron
##nd
##gb
##co
##wide
##here
##xual
##11
##inting
##anch
ine
chains
trained
##uments
committ
conc
crying
usually
energy
donations
spew
tai
clown
scot
murderers
politically
emer
bush
gender
contract
2015
causes
soul
infect
inside
candace
humans
thousand
reading
solid
susp
largely
corona
cannon
holder
divide
globalist
views
receive
0001f49
ukrainian
religious
teachers
anarchists
appears
alien
individuals
pathetic
financial
korea
canada
comprom
david
nursing
02
41
bol
dum
dare
il
mike
pla
psy
touch
##iated
##ients
##lor
##77
##ert
blank
blasio
##anny
##acked
##oring
##aster
beg
fort
##etor
##uries
##iling
consequ
sole
##ooked
lew
agent
aggress
spoke
spring
knowing
incidents
club
scary
quote
teen
institution
##idden
foundation
affect
morons
sadly
chiefs
ideas
improve
felt
positions
argument
beginning
leaving
amendment
jungle
transgender
thomas
taiwan
33
cir
lin
nike
pp
ramp
ww
##eal
##iation
##wor
##icated
##itive
##entially
stole
training
##ocked
##igan
##pped
##rating
##ilities
broke
intent
dism
impl
dress
science
##seless
ways
schol
gotta
official
defending
greater
shoots
ess
policing
entit
raped
riding
convicted
missed
facing
targeted
complaining
mentioned
multi
associated
homicides
houses
individual
martin
bottom
robert
bureau
youtube
unifor
38
56
boss
cant
era
loyal
lgb
rand
rif
yr
yep
##egr
##ius
##lords
##back
##cr
##ky
blow
##enn
##ona
intr
##aries
##ashing
began
chair
chosen
stere
amb
shout
##oca
##sters
##ounts
everyday
offended
guarant
displ
persons
##ipe
prejud
decide
decision
teaching
lawless
##orning
bigger
2022
defense
interference
eliz
senators
homeless
watched
treason
sniff
michigan
tradem
faces
targeting
spreading
##ernick
unfair
celeb
cartel
worthless
effective
shirt
spoken
promoting
mistake
1994
international
eventually
budd
recognize
autom
animals
ugly
disagree
44
46
bat
btw
cal
cold
games
kelly
lic
morning
odd
pow
rare
rats
tough
tour
vand
##ship
##xy
##14
##erous
blat
##icit
##icious
##itions
toler
##otyp
00a0
onto
train
french
mater
##abeth
arson
parts
presiden
offer
acts
##ipt
cloth
perman
##lessly
collusion
instr
stats
status
arrived
subst
transl
fully
protection
center
haters
robber
disrespected
investigation
daddy
encourage
aliens
utter
particular
provided
gradu
austral
worried
industry
conspiracy
tariffs
lewis
37
52
55
aug
mi
migr
oct
sun
ton
tort
wide
##aks
##t0
##ium
##iors
##ney
##64
thus
##icult
##asion
princ
comr
##osp
tries
##though
orders
abused
##ston
sea
although
exam
##elie
indeed
##elle
##plom
adult
virgin
scr
famous
latest
prec
gotten
carol
insane
included
dealers
dependent
surve
ignorance
funeral
flags
minds
knees
sexual
mental
supposedly
occup
devil
diplom
laughing
celebrities
particularly
garbage
rhetor
clinics
boycott
necessary
lemon
margaret
conversation
basketball
journal
kaep
elizabeth
presidency
3rd
53
fan
fif
hiding
ker
mj
opr
rock
tem
veter
wild
wanna
##aken
##ya
##uit
##40
##acial
##ores
##ita
##ids
stock
##lying
##ocks
##adel
##allen
unr
unle
soft
cru
justified
usual
shel
nob
integr
loving
pool
mobs
##estry
columb
twe
schumer
thrown
systematic
illiter
added
##aha
legit
raising
afford
ordered
signed
loser
2008
constit
snea
solution
ballot
division
broad
islamic
sleep
carry
barry
logic
achieve
omar
philadel
exploit
ahead
dozens
reelect
bulb
lgbt
stereotyp
oprah
philadelph
core
eight
jin
june
kung
lap
mol
opt
tat
vill
##ds
##tt
bless
##omes
chann
forces
##ety
prize
##ays
haw
shown
track
uns
mans
cris
space
overth
guard
saving
phys
backed
perm
corn
corner
key
198
starts
2012
##uctive
waking
includes
addict
winning
chris
skinned
exclus
mainly
earn
hater
interests
ancestry
figuring
suffered
growth
imprison
1960
referring
unbelie
patriots
dictator
dictators
squad
camer
angel
separate
jeff
affairs
slogan
committee
##ocaust
virginia
kaepernick
01
72
du
dut
july
pure
picks
rab
rnc
sens
site
##oom
##oving
##af
##bo
##kin
##hem
##hol
##inent
##eness
##educ
initi
##astr
##aled
challen
##imed
##ami
##thod
allies
weed
fred
noticed
del
dece
unw
willie
worship
##lare
spot
indic
saf
##ode
disp
resour
flight
phr
##ourge
coff
player
somew
monday
handler
houston
diff
arabs
standard
civilization
serving
militia
choosing
records
centuries
150
sentences
cheat
judges
desperate
holocaust
fools
acceptable
stories
throwing
ethnicity
incarceration
determ
disappear
households
lawyer
strategy
appreciate
psych
random
trademarks
carolina
philadelphia
overthrow
##thodox
42
cia
dian
dorn
h1
rush
sac
till
tiny
witch
wisc
##ties
##ening
##itism
##isy
##arity
##asm
##istan
##isted
##under
##ums
demented
orthodox
neither
##anding
##aine
lee
becomes
exists
brand
spir
##eless
##asty
disgr
flo
scourge
lefty
prep
pregn
##onsin
minnes
cars
ending
numerous
powerful
handling
skill
served
holds
kinda
visit
snow
experi
figures
caucas
purple
expected
iranian
filthy
operation
secretary
fascists
departments
honestly
threatened
doctors
intimidation
traitors
heavily
model
subsid
degree
january
offenders
attract
restrict
shoes
finger
welcome
various
commercial
suddenly
##ength
witness
##burg
jinping
crisis
difficult
wisconsin
bare
battle
cell
cull
din
dunk
gent
hes
hmm
hij
hiring
lun
loss
mut
pac
tend
##evi
##mart
##ker
##pe
##ze
anger
whining
##arm
##lex
chant
stamp
pride
depr
delaw
willi
##ously
overt
grab
actors
persec
resign
reserv
pointing
fauc
##asses
cool
emot
feb
puts
remain
older
females
collud
talks
terrorism
colored
handed
farm
illegally
charges
confused
pastor
markets
understanding
setting
debt
catholics
churches
professional
anarchy
regarding
manipulate
defeat
attitude
acknowledge
splatter
management
intentionally
compromised
bolsh
rhetoric
unrest
minnesota
delaware
bail
jr
jac
mir
rent
uh
van
vile
##ration
##nbc
##gu
##ster
##port
##47
##enous
##iciously
##usa
##olf
stab
reven
heck
##alled
franc
concent
managed
butt
mel
alike
env
entr
extra
proves
proven
##astic
loose
acad
drunk
cooper
letter
believing
talked
elite
planning
compare
sometimes
feels
##ucker
surr
subm
admitted
wondering
##otten
earli
represents
sentence
enslave
michelle
increasing
replac
enemies
0001f44
iranians
authority
biological
suspects
required
nominate
pictures
natural
##oooooooo
restaurants
empower
primary
primarily
0001f923
trillion
taxpayer
sponsored
ironic
vehicle
bubba
consequences
blatant
safety
phrase
cullors
39
57
bod
cab
hug
mere
mong
meth
nc
nu
nick
poc
tit
useless
wo
wil
yo
##ober
##off
##tf
##iar
##nel
##lock
##inn
##inder
chop
forb
##ister
##ires
##irates
##urally
trip
##iger
weird
delus
##rators
sees
uneduc
conven
##ulent
meas
partners
suppose
##ucks
phony
coal
quid
apply
accounts
mexicans
feet
minim
organis
handle
insulting
listed
arrests
arresting
addition
promise
##kkk
##obic
walked
walmart
refuses
exclud
exceptions
painting
hopefully
buildings
solve
huh
mission
enslaving
silent
beaten
activity
qualifications
ruined
felon
dropped
benefits
carrying
semitic
tearing
hypocrisy
execut
dirt
motor
motiv
sanders
suburban
queen
hanging
delivered
summer
labeled
custody
legislation
express
plaza
circ
display
prejudice
instruct
australia
channel
resources
bolshevi
jacob
earlier
uneducated
48
aint
ber
band
bother
bang
bob
coc
dig
hind
lay
lines
mine
nad
nasty
overs
overse
pants
tay
wood
wage
##ai
##ros
##hib
##12
##inct
anal
##ouse
##icles
##isse
##isive
##isions
##rel
whe
isis
betr
beans
stations
stating
##eted
##imately
##igg
##ested
ability
##pping
suit
##iles
##ander
unions
cong
conqu
##aint
joy
plot
plans
killers
knife
events
groc
owning
loans
object
##ounded
##iped
fires
scene
murderer
coast
empt
destructive
accus
declare
syr
populations
recru
doesnt
irony
buff
smell
interact
elites
systems
impact
nationalists
northern
headline
continued
wonderful
losers
moral
crowder
identified
susan
hills
denied
patrisse
silence
approach
sexist
attempting
favorite
dogs
decline
declared
spokes
described
appointed
hoping
roots
yelling
convince
embrace
machine
tactics
pawns
scotus
linked
scholars
buddies
october
columbus
constitu
sacr
dunkin
taylor
59
az
bot
buck
cate
cook
eg
eu
e2
fuck
gear
gins
mic
nine
portion
rb
ruth
wave
zone
##oon
##away
##ront
##lasio
##mas
##col
##uan
##hen
##head
##13
theory
##inking
##ature
##ania
##lly
inj
cher
stuck
prime
hall
waste
sue
##ched
notable
##ilit
section
lect
outbre
donuts
nov
seeking
##enses
perform
stopping
attend
consulate
helm
governments
decade
design
recall
irre
minute
interr
##encies
charl
standards
legs
confir
opening
reporting
earned
conduct
denounce
learning
hurting
horse
athe
demonst
predators
sanction
totalitarian
0001f3ff
0001f3fe
critical
progressives
anarchist
outraged
##isco
require
kicked
surprise
censors
sister
incarcerated
agreement
discussion
ghettos
independ
virtually
rebu
trillions
audience
source
reached
shaun
sanctions
insurance
impeachment
navy
smoking
institutional
entitled
august
somewhere
fauci
betray
categ
rbg
43
66
94
bike
dou
fish
fell
fuc
hack
hosp
pim
pard
page
paper
rout
sam
silly
tik
um
wages
##obe
##iel
##iority
##ikes
##fort
##father
##lo
##yan
##side
##ux
##uch
##pre
##vard
##he
##icing
##rets
infer
##lement
##levant
##enth
liz
##empt
stance
##illing
reverse
aside
##ager
##agan
butch
##abor
exch
knock
##elled
acqu
obl
seek
launch
strange
strike
accident
realizing
teacher
collabor
elit
carson
endless
reduce
basis
##hips
issued
invasion
behalf
swing
switch
legally
surge
equity
equally
confront
opened
malcol
ownership
signs
harvard
purs
massac
anthony
200d
educational
traditional
hurts
faced
approx
ancient
##ascar
estate
deeply
adopt
bait
penn
deliber
celebrate
nature
manipulated
louisville
pockets
captured
assistance
traffic
opposite
entertainment
telev
democracy
allegedly
kentucky
accomplishments
connections
ashamed
announced
demographic
prosecutor
chairman
automatically
nobel
caucasian
irrelevant
interracial
malcolm
aunt
b3
bio
bats
cock
dudes
egy
hy
hust
jih
kush
luck
oreg
piss
rating
sund
tab
table
vent
##aft
##dom
##iable
##ique
##mo
##bit
##bling
##icals
##isem
##rees
00a4
chuck
haiti
shops
##osha
trick
##alley
commission
weather
doj
frank
suic
sued
##iltr
math
unit
##uls
justify
alot
braz
##izona
arizona
parties
##osexual
indig
saved
##ibuted
lob
loved
actor
antisem
protester
##qualif
quarter
consist
helps
teams
thru
oppose
factories
warning
looted
##ployed
compar
##ailable
nationalist
reduced
infiltr
exposed
prominent
italy
feeling
1000
secrets
raping
harder
conditions
posted
absent
1619
arms
sites
despise
ceo
director
figured
divided
divisive
globalists
receiving
grandm
previous
employed
owes
assaulted
changes
##ophobic
bullsh
available
abolished
sales
baiting
describe
heroes
eliminate
epid
canadian
praised
jerusa
kenosha
regular
taxpayers
closer
opposition
scientists
overwhelmingly
essentially
kerry
illiterate
tatum
imprisoned
camera
disgrace
bodies
empty
pardon
egypt
jihad
oregon
jerusalem
49
87
bast
muse
mcc
rip
rog
sow
sides
wtf
zed
##dling
##ror
##ric
##iating
##kins
##ware
##24
##50
##jo
##erve
##orice
##itute
inher
##ask
champ
lift
station
prost
##ads
##ests
##sea
france
##ching
racially
seat
sept
agencies
spike
beings
margin
myth
obtain
obey
flies
philly
launder
climate
scare
strip
structure
accur
realized
decisions
worldwide
assets
2013
organized
write
statements
systematically
arrog
roaches
somal
reduc
##ancing
memor
surely
turnout
policem
italians
congressman
educate
final
confl
patients
reflect
refusing
threats
followed
advis
loses
retard
checks
demanded
successfully
deblasio
interested
ladies
demonc
demonstr
robbed
addressing
encoun
0001f4a
germ
criticize
embass
##ophy
##owser
attempted
costs
nominated
census
rolling
accomplished
window
flying
karen
embarrassment
tools
chicken
dozen
repeated
endorsed
convinced
quickly
palestinians
tower
rampant
licorice
vandal
tonight
angeles
pregnant
cocaine
outbreak
television
indigenous
epidemic
05
2nd
58
aimed
eug
jers
jam
lord
mort
ole
pit
punk
pink
range
si
sj
sar
sons
tall
tree
valley
wore
##aq
##ean
##37
##80
##viet
##hel
##10
threw
##esh
blond
bloom
##orse
##icial
init
whist
##othing
chel
##ete
##unity
reaction
price
amy
shad
##urd
##allow
##ches
##standing
##rates
sect
unable
soviet
##ooo
##ifying
bron
spin
spying
whenever
##aped
supply
##iah
presidents
overlords
dislike
fled
mayhem
newly
clar
backing
beto
coverage
quo
emanc
appease
prem
below
colin
assass
putin
remarks
belief
femin
park
badly
underm
younger
basic
illegit
breath
glor
feelings
continent
militant
discover
choices
##otton
england
excuses
maintain
condition
constant
enslavement
expert
miser
representative
mentally
addressed
puppets
falsely
services
##t14
investigate
deserves
cancell
combat
encouraging
promoted
hypocrite
manufactured
empire
utop
eliminated
lynching
lynched
reminds
praise
heavy
suppression
ultim
bigoted
escape
lockdown
colonial
trafficking
institutions
flee
books
establishment
cycle
inequ
02dc
introd
robbery
cruz
spirit
barely
pacific
organisation
executive
exchange
approximately
eugen
jersey
sjw
chelsea
emancip
04
92
bowser
cotton
dish
dys
hiden
hilar
jem
jun
mug
nope
nascar
oil
rall
rational
sed
sight
upper
vene
##don
##riend
##fare
##face
##bow
##bies
##inary
##information
##esome
##itting
##isons
bear
chain
##istered
##iron
stage
##etime
##unct
sham
shocked
trial
##ume
##outs
unc
##agues
##umpt
##ooks
crooked
outlet
enab
arch
sport
yourselves
reporter
203
joey
gull
saud
##ibbe
mary
image
resulting
clothing
scumb
scores
perp
liberty
emirates
soci
runs
removing
highlight
organizer
victory
pays
senior
reds
##anced
##ughters
violently
criminality
insist
allows
homeland
unemployed
ignores
founders
patents
published
easier
followers
signal
recorded
humanity
ensure
passing
represented
absence
entirely
nyt
solutions
desper
treating
puer
reforms
erad
document
bankrupt
ruin
assaulting
awful
awesome
authorities
disrespecting
tested
covered
suspected
negot
countless
originated
versus
patriotic
intimidating
logo
olig
eleven
coward
0001f3fd
contributions
suburbs
lifetime
pedoph
compete
wedlock
apologize
abandoned
merch
spewing
examples
duty
floor
stamps
francisco
delusional
grocery
recruit
fucking
inferior
kushner
hilarious
rallies
venez
65
81
bent
bible
dj
dest
dang
duck
fu
ghan
hook
lucky
nail
rail
sab
sna
tan
tied
ven
wise
xen
##of
##oves
##do
##top
##time
##roc
##rastr
##lines
##bart
##born
##cl
##87
##44
##inating
blamed
##icate
00a6
forcing
lip
liars
online
##illion
reid
ham
hah
##imated
##amm
shipping
##ado
whitmer
wash
org
dept
unite
concept
crash
womb
ages
spending
suppl
offered
evident
dispar
knowledge
##isma
ourselves
obam
##athy
##arry
righte
quality
emails
feat
terrified
minor
smear
organizers
caring
caribbe
shooter
##lfriend
contain
infrastr
expand
expense
##aker
breaks
deput
equival
capable
frequ
plantations
billionaires
girlfriend
prisoners
speakers
186
retired
kinds
extortion
absurd
specific
deny
experiment
msnbc
fooled
segment
professors
fraudulent
outright
descript
focused
argue
buried
ruled
capitalism
demokkk
encouraged
##mao
penal
execution
executed
internet
constitutional
omg
perpetu
agreed
providing
virtue
hopes
kissing
harassed
institute
attitudes
palestinian
bribe
bomb
solidarity
solely
uniforms
guarantee
permanent
fifty
unleashed
integration
diane
skills
chanting
mirror
method
ginsburg
confirmed
dougl
deliberately
grandmother
bullshit
zedong
bloomberg
whistle
dysf
gullible
puerto
oligarch
ghana
infrastructure
equivalent
51
98
aid
apr
bout
bond
cess
dur
dope
fet
ga
giant
len
link
mos
pose
ring
rain
raid
rasm
tib
tune
vol
vet
##akes
##roll
##gency
##lide
##lands
##mon
##pool
##21
##vin
thie
##aces
##atown
##ened
##icas
##icia
##itz
toile
##rell
inform
isol
bell
chap
##uther
stone
react
prisons
##term
##tered
shocking
comed
americas
doors
abr
abra
goya
##chel
##child
noted
##ags
##agne
meat
cancer
joined
donate
exterm
##izer
pled
plight
indent
presence
dise
loan
resent
advert
##ounding
draw
scre
strength
attended
socially
beloved
teens
oppon
worker
genu
warfare
##ussen
talented
wray
plane
didnt
comput
courage
hung
hunted
culturally
fundament
gunned
infl
cream
bann
invent
stupidity
finding
additional
##ahont
region
failures
series
legend
steven
rapp
confisc
maliciously
forms
reparation
publicly
classes
2764
imported
detr
##rett
250
##lihood
barb
generally
erase
severe
foolish
grandfather
fatally
improved
portray
steps
film
disrespectful
criticized
segregated
cuts
##t17
existence
1960s
pressure
neglect
lesbians
ruling
districts
hypocrites
##blue
intimidate
baseball
segregationist
descendant
budget
cowards
libt
developed
karl
sweet
austin
pigs
verb
occurred
gathering
landslide
survive
##franch
indoctrinated
begging
dismant
rifle
yrs
powder
exclusively
dictatorship
coffee
hijacked
williams
colluding
concentration
merely
nadler
wheel
constituents
rebuild
hospital
lobby
memorial
germans
embassy
##unctional
righteous
dysfunctional
cesspool
rasmussen
tibet
600
ay
bb
bon
bass
bog
bully
dw
ded
dance
eb
fla
gate
hi
hidden
hinn
kr
ku
lor
lmao
luther
pd
ram
roles
tucker
ves
##oop
##aves
##t20
##ez
##ipl
##nie
##fers
##fla
##cast
##uge
##uous
##76
##86
##95
##23
##22
##acing
##ato
blackness
##ener
##itbart
andrew
##omm
##idge
##ionage
chinatown
stoo
stars
rein
rever
print
ships
truck
##ocol
##ador
byrd
whoever
degr
##iliated
unjust
mattering
##ular
##ifies
outf
alert
plain
prohib
yours
##apse
offender
offenses
##pans
safer
actblue
draft
incor
scen
appeal
decre
schem
beliefs
2010
smith
smoke
smiling
collapse
illino
cultures
memo
sky
kamal
infilt
banks
finds
##ahah
promising
breitbart
homosexual
differently
thoughts
steve
espionage
poster
explaining
affected
rapist
minded
identifying
possession
jailed
missing
radio
radicals
types
##onym
accountable
accountability
representation
representatives
moms
marri
satur
tests
garner
##ification
placed
dropping
investigated
bias
marching
declar
footage
##tok
devast
deserved
falling
salute
nomination
prosecute
prosecuted
returned
hoods
amazon
purposely
forgotten
practices
korean
elev
exploiting
incredible
##ueless
degrees
0001f3fb
mandatory
boxes
collective
defeated
##going
sources
roman
shopping
struggle
acknowled
prosperity
360
indoctrination
emergency
aggression
wwii
intentions
loyalty
shouting
material
adults
survey
veteran
shelves
laptop
initiative
determine
experienced
title
forbid
minimum
independence
sunday
museum
caribbean
abrams
genuine
##ahontas
64
62
83
azz
bc
bunk
eh
ell
fer
hbc
mam
ni
pc
pin
pence
pour
pak
rough
rage
sir
tor
wid
wipe
yup
##den
##dain
##ex
##ias
##night
##nox
##lin
##mates
##ses
##coming
##kind
##wom
##pired
##25
##vs
##hr
##hl
##hum
##jam
##ini
##aca
##acking
##enfranch
##oral
toss
##arms
##uting
hav
shan
##osophy
##och
##uma
##umented
commies
demean
##ils
seize
unqualif
conce
##agn
##agon
##ulian
cruel
##abe
whats
alicia
enacted
donated
donors
extr
expans
aged
aggr
agency
spray
plastic
##ivity
##uela
guise
grave
disaster
disdain
disenfranch
obnox
resc
ads
##ension
viral
phones
incap
##iction
laid
backward
coinc
stops
apple
preach
accuse
latina
##000
##ogy
popular
takeover
fee
recip
iraq
2014
smarter
writing
ends
endorse
robe
imposs
implement
contact
relatives
pointlessly
crew
adding
##room
##road
registered
hardly
##ologist
##ette
breonna
dealings
legacy
covid19
funnel
refuge
transport
articles
israeli
speaker
commitment
victimization
mindset
posting
boat
visited
amongst
hairy
eyed
produc
propagand
debates
enforce
brutal
approved
holy
demonrats
smaller
shutting
shutdown
controlling
grandpar
fatal
annoy
discriminated
garza
criticism
horrific
furious
operative
accepted
benefited
biased
attempts
speeches
darker
semite
referred
disproportionate
cuba
fixed
square
agrees
philosophy
models
windows
blocked
0001f3fc
embarrassing
repeat
enrich
industr
savages
concerns
code
vietnamese
screwed
sympathy
golden
punishment
sucker
0001f1fa
souls
fortune
clubs
torture
comrade
comrades
sleeping
lgbtq
hawk
worshiping
snowfla
restrictions
dinner
environ
academ
motivated
bolshevik
overseas
injured
tiktok
elitist
venture
suicide
comparison
accurate
##eteenth
eugenics
snake
toilet
abraham
indentured
bannon
hinnant
illinois
unqualified
03
4th
77
76
89
aven
cou
cos
cages
cards
dy
date
fo
fant
fuel
hid
ju
lunch
merc
nuts
os
pap
rican
ridden
sust
sant
sett
tu
tons
trem
tues
upp
uigh
vit
vicious
yard
##oqu
##overs
##ding
##eb
##eur
##right
##fa
##ls
##lson
##me
##boy
##cul
##point
##vable
##hs
##house
##xic
##jan
##orm
##orks
##orrow
##eds
toxic
##reh
whine
##ario
chances
##idal
##opath
forth
##owing
##emb
ongoing
##erst
##eting
review
##ima
ship
shake
shipped
##osh
##ader
##alling
##umm
##umes
commands
wears
##cell
seven
unique
conference
##ighter
soy
soil
##abet
outlaw
donnie
brag
brings
brandon
##iven
prover
partner
##endous
noose
counting
shoulder
myster
perspect
drinking
mural
mov
##fta
clueless
strang
coord
quiet
nationwide
email
deciding
##rency
194
desire
opposing
destroys
wont
genius
factor
warned
smh
deflect
instance
carn
systemically
burnt
proportion
illness
compens
content
poorly
relative
relief
handled
newsp
banner
farce
charter
##ruary
##ologies
swim
swallow
civilized
continuing
##ushed
stevie
secure
##iety
reporters
holders
follows
currency
##okee
harves
excess
greed
exception
retire
hats
extended
cheating
imports
pushes
##atto
messages
patron
patrol
brutalized
directed
stayed
holes
valid
warrant
representing
answers
ideological
filth
servants
freedoms
operatives
disgusted
investigating
effectively
booker
focusing
counties
originally
nafta
superior
suggesting
tomorrow
condemning
herschel
sharp
revolutionary
censoring
practice
practicing
empathy
perpetrators
opinions
eliminating
brainwashing
connected
incompetence
bigotry
sweat
quotas
##nesday
attributed
applican
competition
slowly
romney
struggling
wednesday
lawyers
kente
advocate
authoritarian
##friend
revealed
dependency
demographics
clowns
rifles
permanently
substant
translation
graduate
miami
diplomats
legitimate
sneakers
physical
rabid
february
instructions
interactions
censorship
##fortable
massacre
arrogant
reducing
conflict
repeatedly
juneteenth
redskins
xenophobic
description
april
chapter
rappers
saturday
obnoxious
environment
tuesday
5th
67
74
93
aa
a4
bug
bots
dan
e1
fec
fash
faster
gi
gal
gains
harmed
hys
lit
lond
larry
nhl
ps
pad
pant
sid
tac
tap
tip
vul
wides
wann
yuan
zion
##oking
##dr
##town
##34
##care
##pers
##pread
##99
##har
##hab
##17
##18
ther
##inate
##informed
##acity
##ici
##icable
##icient
tok
toll
toast
informed
liked
##illa
reagan
priest
peas
peep
##vereign
shr
shift
##igible
##igrated
command
ord
orient
abc
goals
##chec
##usted
unpr
unkn
sovereign
##ifting
joes
##ews
anytime
##apo
offering
grie
intended
##pless
aclu
adam
drivers
driven
poison
##iph
firing
firms
incite
faux
cler
clad
strikes
millenn
idol
##ache
remark
bigots
contrast
##nedy
waving
courts
conte
friendly
handouts
skull
info
banning
##ception
insid
lows
##akers
##aham
headed
fights
congressmen
discipl
panel
rapper
ohio
equip
confron
familiar
soldier
capit
freak
transm
invested
explained
christmas
idiotic
profile
corrupted
1800
centers
locking
2009
posts
sentiment
visiting
treas
judg
produce
convinc
denoun
barrett
silic
documents
60s
predict
viewed
involvement
##rection
qualify
ruining
annual
discriminate
relevant
criticizing
profession
meetings
owed
##t16
hearts
changing
bullets
declaring
21st
abolition
burisma
diam
spoiled
towns
promotes
networks
##black
sucking
youths
allegiance
describes
assuming
achieved
koreans
pieces
pretends
moderate
jerk
camel
preventing
domination
dominated
kennedy
insulted
admitting
lifest
abolishing
jumping
custom
belongs
insurrection
engineers
reveals
deported
purchased
infection
lawlessness
unfairly
celebrating
jefferson
challenge
h1b
attractive
lunatic
reservation
reservations
coalition
hindu
cherokee
lecturing
atheist
infiltration
advisor
illegitimate
discovered
cancelled
utopia
emancipation
jemima
203a
venezuela
diseases
stooge
marriage
##woman
expansion
incapable
impossible
grandparents
proverb
hyster
london
widespread
unknown
54
78
911
a8
bald
bucks
cents
hence
hint
hits
jury
lame
luc
muss
nf
nut
nose
nbc
ought
pom
porn
pale
row
ros
rig
rant
rising
rino
sic
ske
tun
task
vern
wre
wig
wik
zim
##da
##dle
##dra
##tch
##rum
##ga
##lv
##mad
##ple
##von
##inet
##inos
##acik
##athing
bleed
##onom
##onies
##icting
##itude
toe
tooth
todd
##rey
ingr
##arked
chip
##veland
formed
liby
##olini
##illance
revers
priority
##amous
##verted
sher
shes
shield
trag
trend
trail
alliance
weight
##esting
dod
abusing
##sein
##iang
season
unh
uncom
manh
mankind
##orting
lean
criter
justices
alco
##ishing
excell
brill
upd
plag
proved
proxy
##aping
##elling
grants
##ibl
##ibution
disad
disrupt
lover
load
loathing
active
acce
obese
drink
flat
inclus
strict
##anged
liberia
consum
appe
accusing
##acht
electing
0001f5
asset
thro
remains
minist
controvers
smoll
parade
installed
payroll
proph
comply
##weight
imper
impunity
monit
pointed
newsom
newsome
stream
freeing
livelihood
invited
expensive
fails
campus
miles
glasses
cleveland
dealer
civilians
boyfriend
capita
threatens
selfish
explan
peacefully
investments
protected
advice
daughters
mainland
locations
checking
morals
condes
buys
listened
facilities
approve
resulted
qualification
healthcare
robes
robbing
expecting
wishes
employee
releasing
closely
cuz
associate
operating
secretly
entering
entered
existed
correction
creature
corporation
marched
walker
walkaway
versa
interviewed
hypocritic
klacik
270c
chauff
manipulating
allegations
0001f622
1970
1970s
punished
achievement
britain
distur
distance
hussein
recognized
confeder
exploited
jerry
kenyan
limited
rejected
blocking
development
atlantic
##struction
perfectly
savage
struggles
ironically
sanctuary
commercials
scientist
tactic
bribes
0001f1f8
fortun
##worth
dismiss
uniform
ambass
celebrated
odds
surveillance
journalists
veterans
reelected
reelection
prepared
hmmm
persecution
revenge
pocahontas
excluding
accusations
syria
scholarships
sacrif
egg
routine
oblig
september
encounter
vandalism
miserable
dishon
djt
thieves
detriment
bogus
pakistan
widow
##human
uppity
fashion
equipment
convincing
silicon
diamond
mussolini
criteria
alcohol
63
bay
bump
cbs
cup
dun
fos
guts
han
ic
jur
jess
jared
mac
mock
moses
natives
niger
oops
pm
por
pist
pile
pip
pitch
rose
rude
rosen
ss
settle
tone
tast
tuls
wives
##ograph
##ae
##tm
##eem
##ien
##iber
##iences
##fu
##lished
##yy
##bec
##35
##ule
##wr
##82
tho
tha
##inous
blames
##anity
##onami
anime
##inging
toonami
ink
inmates
##omp
##leg
##leans
ish
beach
##owe
##owed
##ems
stocking
##etically
##illed
reward
pron
hamm
shall
traged
asks
whitest
whiteness
##keys
##the
allah
web
orleans
frust
suits
##char
uncon
unpre
manif
##ulf
##ulation
atroc
cries
crick
##ables
##laim
joint
enact
brunt
bricks
branch
upl
spit
spite
speed
proving
##eline
##enders
overall
guest
grade
sale
disli
actively
dram
virologist
flash
##icked
incent
clip
closing
scand
score
downtown
viruses
latter
makeup
cogn
##angel
apps
appla
prez
prefers
helpless
pope
protested
##render
remaining
medic
bills
careful
minister
shots
organize
plays
greatly
underground
neighbour
seniors
complex
studying
hunting
hungry
monuments
skyr
infested
infamous
stronger
strongly
edison
invite
expend
headlines
economically
swear
seemed
surg
surrender
admits
finish
fewer
walks
captain
explains
profits
oppressive
engage
victimhood
masses
bench
2006
feds
borne
vision
solved
hitting
possibility
apology
experts
landed
trading
tradition
balls
facilit
increases
currents
viewers
grandchild
firearms
previously
stephen
annually
discriminating
testing
ukrainians
christianity
hearted
assaults
statistically
effects
semitism
fallen
reference
cube
adopting
##appy
normally
##overished
condemned
mlb
surprising
injustices
describing
financed
selected
selection
perpetrated
predominately
buddy
lynchings
shameful
ultra
martyr
scottish
escal
escaped
embarrassed
dimw
##sylv
quotes
bags
worrying
davis
catching
shoe
territories
established
closet
codes
boots
boycot
strateg
significantly
machines
appropriate
dumped
tyranny
connection
dragon
satanic
merit
dissidents
bombs
contracts
ilk
affects
essential
powers
clothes
robberies
migrants
precinct
tweeted
stereotype
stereotypes
sensitive
flights
##peo
persecuted
emotional
##guided
revenue
entry
increasingly
convenient
motorcy
bangers
sanctioned
accidentally
pennsylv
cockt
pissed
pardoned
champion
0001f4a5
undermine
inequality
saudi
scumbag
sabot
demokkkrat
penalty
whistlebl
fundamental
lori
scenario
infiltrated
bunker
backwards
industrial
movies
newspaper
pompeo
brilliant
explanation
condesc
hypocritical
ambassador
tulsa
skyrock
pennsylvania
69
aids
alex
cain
cure
dall
dere
dial
dup
dual
dwell
daca
fy
farr
gall
gaining
gained
hord
jen
jason
ly
lest
lago
length
mz
moun
mitt
mitch
nw
nbs
nah
nyp
oak
pill
pound
ron
rot
rud
ride
raging
tout
uae
##oked
##awn
##rican
##gar
##gers
##fy
##lives
##bon
##uana
##part
##90
##63
##65
##hal
##54
##15
##atics
##ingo
##ingu
##oux
##reach
##arming
##oma
##alo
##alk
bears
chaz
chasing
##usi
##olith
stead
reign
reaching
pee
hait
##iments
heels
##amer
##tering
shade
tray
##ocrats
aspect
##igger
withdra
demor
doom
dole
goons
##cel
##cho
rachel
communications
depl
unm
unre
manner
##ulated
##orted
poles
polish
##ifa
##abl
##lah
aligned
sheet
maher
##ghan
##ghai
donating
exceed
brian
brave
brief
bridge
##izz
##trine
spr
spain
plug
herman
reply
repress
offense
grass
disab
disinformation
loaded
images
resident
resume
##athan
moves
clue
pervert
struck
##quer
coop
coke
coaches
leads
##undit
##oots
busing
belt
lawm
synd
twist
twisted
asses
##pres
recon
operate
parks
instig
payers
propose
impoverished
contempt
monolith
memory
liberalism
fundra
colorado
##resp
##leted
addicted
masked
differences
glass
godless
swine
sworn
slim
slur
labs
singing
panic
chooses
confirm
guessing
pattern
explos
##umbling
understood
weekly
membership
rapes
rapists
advanced
187
polled
engaged
earning
benjam
lights
2007
posters
sentencing
boom
importantly
detail
judicial
convict
denying
despicable
respected
silver
walls
targets
doctrine
activities
misery
misguided
##phas
involves
involving
nightm
resistance
gays
narc
favors
authored
announce
sooner
disgu
worthy
productive
operated
cutting
##t12
1964
1965
correctly
maxim
burgl
##ijuana
cubans
tears
lowered
assumed
immediate
1973
unfortunate
punks
350
hotel
crowds
hostage
praising
trojan
heaven
graduation
leaves
projects
3000
photos
apartment
dreams
0001f926
necks
regulations
crossing
meaningless
repeating
symbols
##hammad
enroll
jumped
##hhhh
harassment
savior
fingers
democraps
backgrounds
participate
prosperous
appropriating
dares
junkie
scarves
1950
dependence
purchase
announc
tedros
aggressive
treasonous
rarely
tolerance
migration
precious
occupied
integrity
unbelievable
##board
fredo
academic
replacement
cabinet
mongol
nickn
measures
bobby
congrat
ruthless
helmet
betrayed
frankly
antisemitism
absentee
prostitute
marginalized
policemen
demoncrat
shadow
premise
maryland
sociopath
pedophile
frequently
douglas
lenin
rainbow
resentment
computer
dismantle
ellison
shanghai
coincidence
annoying
perspective
carnage
applicants
wannabe
lifestyle
libya
tragic
accepting
unpreced
grandchildren
dallas
fyi
mzlem
nbsp
88
84
800
bost
bath
bbc
cp
cough
cuck
cats
c77
dese
ditch
dyn
diver
dancing
fb
fest
fits
flaw
gut
gib
gigg
hiv
ire
icon
ky
kend
kaz
kings
klu
kicking
kyle
lords
mul
nerve
pair
peter
ray
rum
rag
river
sr
size
sits
saint
tus
tie
tea
uy
umm
va
vat
vib
wolf
wiped
yall
##ok
##de
##dam
##tin
##rome
##gen
##gus
##fere
##fire
##ford
##uu
##7b
##74
##wer
##paid
##person
##hor
##zo
##zos
thread
thumb
##erce
##inum
blackface
##oning
##eday
anderson
##repres
whip
##otov
##alin
islands
chase
##idly
##idel
lil
##olve
ster
stir
stim
##lyn
heal
shack
shock
shared
##ura
##urt
trigger
##ocrat
asia
##igo
##thusi
weaken
##sec
##essions
fresh
##antic
matt
sequ
unn
##agement
##agger
##ulp
##ulus
polar
sovi
leo
leban
trumpers
afro
##ifiable
outreach
whatso
alb
alph
alright
enthusi
##izers
##izations
spooked
partn
partial
knocked
indo
##gee
offers
slap
##ollah
overl
evangel
guine
grop
grant
grif
disband
disney
marry
maraud
marijuana
droves
virology
##assed
clim
scale
protocol
perce
string
strings
##reek
##ques
quarant
terrell
emphas
apples
preacher
copy
electron
electric
december
decides
text
teeth
193
syn
twenty
fees
thriving
##force
highway
recover
recomm
sinc
offices
officially
meddling
superv
contrary
2011
deficit
##ussie
interfer
interven
organizing
writ
chicks
chicoms
carlson
payback
##azi
burns
compass
comparing
compreh
someday
hunt
hunters
aborting
##lude
turner
kamel
banking
inspired
invaded
winter
regret
charles
masquer
immune
singled
posing
finance
finished
founding
skinny
entities
transfer
pastors
artist
curious
oppressing
campaigning
morally
constr
richard
descended
properties
solom
160
1600
25th
questionable
##uffed
denial
##attan
traded
generals
fearful
agendas
directors
##ysis
sexually
complicit
nightly
outsour
dumbest
marketing
mentor
marrying
improving
felony
portra
satis
servant
associates
##t13
1968
favored
0001f914
extremists
80s
bullet
bullying
biowe
slept
fascism
straw
##toe
proceed
magaz
2122
influenced
##merman
request
shortly
technically
##blm
celebrity
intimidated
sucks
incomes
forgive
logical
1976
perpetual
grounds
elimination
element
eleph
suppressed
dominate
counterfe
virtual
mandated
songs
regularly
quoted
turkey
capture
palestine
awards
disappoint
entertainers
gatherings
obsc
obsessed
appropriation
engineering
tyrann
islander
geez
mccon
##ihil
reveal
purchases
blackmailed
flooding
punched
suspicious
dummy
teenager
##backs
guaranteed
tolerate
temple
software
broadcast
molotov
mansion
permit
unbeliever
0130
delay
determined
branded
experiencing
subsidized
gentlem
william
colluded
stabbed
surrounded
0001f44a
measure
bolsheviks
congreg
##ipedia
spokesperson
azt
requirements
category
pimp
hyd
hustlers
bastard
laundering
somalia
policeman
retarded
demoncrats
demonstrations
sioux
initial
clarence
feminist
ultimate
ultimately
jerseys
outlets
desperately
documentary
supplies
obamas
opponent
confiscate
libtard
dedicated
scheme
declaration
##uliani
aggrav
rescue
santa
tremendous
swimming
substantial
sidew
griev
context
capitol
nfac
vernon
wikipedia
zimmerman
sheriff
manhattan
controversial
rosenberg
tragedy
crickets
applaud
expendable
whistleblower
condescending
farrak
mountain
oakland
trayvon
deplor
cooperate
syndrome
unprecedented
boston
uygh
soviets
whatsoever
guinea
bioweap
79
b8
bend
bread
busted
cad
dil
dub
dating
eager
fab
fence
fff
gin
gap
gift
hen
hil
hip
honey
hars
htm
ie
ip
jet
jose
jord
jussie
kh
kap
kav
lung
mf
mall
mud
nj
nic
naming
pg
pic
pil
pamp
pets
ras
rural
roof
soph
sque
tant
torn
tony
tape
uc
uber
voc
vil
veg
viciously
wet
wire
waging
yan
zom
##oh
##a8
##aug
##awe
##die
##tab
##ev
##rid
##run
##rence
##ios
##iarch
##news
##far
##fast
##mp
##min
##mers
##mark
##yl
##yard
##bor
##cles
##uable
##75
##win
##wich
##work
##po
##pm
##pren
##69
##27
##28
thier
thurs
##erved
##inj
##inity
##atist
blast
##onven
##onio
##inge
##oul
##itious
##itable
##iser
andy
##reated
##repren
inject
##otes
##aska
##alous
bee
beer
00a7
##ionary
##opher
stem
stones
stoking
stalin
rely
rewr
haha
##imacy
shed
tranny
##ockey
##tha
##umst
##umbs
wasting
##esto
fron
frag
fried
deem
afghan
une
unac
unlaw
manage
##ulates
##ortions
##arters
atm
soooo
leagues
cruc
##abama
users
outstanding
joining
alter
align
altern
alabama
anyways
exerc
##trump
plants
presumpt
repr
##ective
##eller
novel
noble
counted
tail
gray
gross
sake
sauce
loath
acted
##acters
imbec
indiana
persu
resem
adolf
antonio
drown
flames
phar
##ulture
inconven
##ourke
cloud
##ansas
##ecess
strife
coach
attending
nationally
whereas
preaching
electoral
corp
decimated
##ogue
##ogyn
##ogatory
protestant
letters
lethal
assert
assumpt
thrive
reminder
kidna
##ervation
irr
2024
warm
opens
define
parad
interfere
collar
collaps
talent
instantly
instances
underlying
chicom
payments
endang
##aza
##azz
harry
proposed
impose
imposed
impacted
movements
nationality
nationalism
redistr
monsters
bashing
handful
skate
insign
insisted
invade
##rooms
##roxy
charlam
characters
hardest
arabia
breed
slam
potato
labour
steel
##obuch
educating
surf
subvers
##rupted
equals
finest
oklah
entrepren
freaking
freaks
elsewhere
forming
considers
christopher
gangb
rapidly
dawn
damaging
retr
checked
richest
boost
solving
judged
huawe
hello
armies
production
produced
cert
denomin
messiah
debun
universe
treaty
brutally
proudly
140
misc
misogyn
laboratory
seconds
distrib
resisted
purposes
revol
awaken
annihil
commenting
placing
occas
crackhead
apparent
0001f937
behaviors
traveling
breakdown
cardi
avo
arguments
1776
magn
ancestor
semi
capitalist
diagn
salaries
##ika
ghost
##appropr
canceled
technologies
prosecution
mouths
suggests
suggested
klobuch
mistreated
nato
manufacture
267b
fairy
1972
distingu
epic
hostile
praises
platinum
provides
suppressing
auto
leaked
bowing
apartments
subserv
counterpart
renounce
mandar
mandate
sweep
tension
collection
rebell
jealous
turd
pedo
##comes
deranged
derogatory
applications
colonies
sponsor
harassing
##vantaged
castr
flew
roberts
responding
necessarily
sympathizer
advocating
scarf
relationships
punching
conclus
dumber
circle
##crib
buddh
tourist
vandalized
utterly
princip
occupation
fifth
option
villages
##ttps
physically
addiction
unbelievers
subsidi
emotion
cooperation
submission
replacing
##oooooooooooooooo
circumst
laying
woods
analysis
conquer
buffalo
micros
charlie
switched
cockro
tricked
brazil
rogue
sowell
inherently
stripes
breathe
fleeing
introduced
##donald
eradicate
recruitment
expanded
deputies
volunt
vetting
advertising
screen
inflicted
neglected
##onymous
fergus
demeaning
recipients
refugees
snowflake
fueled
hidin
tuition
uighurs
excessive
giuliani
discipline
judgement
reversed
unhappy
excellent
disadvantaged
smollett
chauffeur
sacrifice
pistol
nwo
nypd
disabled
reconstruction
benjamin
kendi
klux
stimulus
recommend
masquerading
solomon
hydroxy
aggravated
farrakhan
fffc
html
thursday
afghanistan
inconvenient
charlamagne
oklahoma
huawei
klobuchar
circumstances
ferguson
61
700
8f
9e
96
900
aims
bin
breat
bans
bah
bird
batter
bhr
cig
cous
dor
dime
dread
dimin
etern
fent
fart
fighter
fulf
gam
gag
gaming
gaff
hog
jill
lu
las
mt
mons
nan
nit
nam
nap
nix
ore
pse
pity
pals
panc
pork
pony
ports
pundit
rope
rotten
rourke
sf
sot
sore
sway
soup
tla
tds
tires
tatto
wis
wade
wield
wounded
yards
yacht
##oval
##ault
##afe
##aked
##aunch
##dog
##dles
##t00
##ele
##rr
##iently
##nt
##nell
##gle
##gun
##field
##lm
##lined
##matter
##year
##bie
##33
##sing
##culture
##kanda
##kota
##py
##60
##67
##ho
##hear
##zi
thir
thief
theres
##erting
##ince
##acon
##atr
##ater
blo
blacklives
##ena
##orate
##iching
##edient
##ito
##itation
##isible
inaug
whis
whipped
##aria
##arians
##areness
##asy
##alities
bezos
00a2
chi
chat
chican
chump
##usal
##opol
##owa
##owers
##eman
##ola
##olent
stack
stee
stacy
stink
staunch
items
haired
amid
shy
shore
shorts
shaking
trigg
##ocation
##ocumented
##aders
##adays
##igue
##kegee
commits
demise
wasted
abus
##sexual
frame
fraction
suv
##ateful
nefar
notion
##rator
##ilized
theirs
unity
untr
uninformed
congo
converted
##agers
sooooo
cray
crush
crushing
craw
##iffer
outcome
donkey
exit
exhib
brah
brook
arent
upr
ploy
partially
##elt
##eled
2000
slavers
overd
overweight
guards
guests
grown
graff
sahar
intel
intend
disreg
dischar
nowadays
supportive
martha
acb
resists
dry
drain
drives
drove
drops
##acey
inciting
moon
lawn
laura
lakota
scold
violations
perps
betting
lefties
struct
murderous
coat
consult
consulates
##underst
appalled
muhammad
wayne
##kedown
keith
lawful
popularity
throws
removal
believers
daylight
sink
medal
median
gene
ops
default
interaction
writer
underage
carav
payment
shooters
senseless
terrorize
monument
monkeys
##ancies
bases
relate
##issipp
creation
creep
inspir
insanity
1024
invaders
regimes
regards
behold
behave
candice
dealt
slum
militants
congresswoman
discred
singer
fines
patient
malcom
caps
0001f64
profiting
gangst
signing
130
advised
sells
purse
tara
damaged
lighter
extent
truths
cheering
cheered
societies
questioning
questioned
setup
mississipp
patriarch
treats
trapped
trauma
fears
fearing
concerning
120
##ipper
predicted
misinformation
misunderst
complains
genocidal
healthy
robin
doubled
dumbass
awareness
##porated
cartoon
estimated
esteem
ethic
authent
horror
clintons
operations
acceptance
jimmy
##t15
storm
creatures
screams
covering
declined
devot
carried
magic
paul
consideration
interviewer
gangster
220
barrack
furthermore
dictionary
lyndon
laughable
mistreat
mistaken
naturally
1990s
internal
bitter
reportedly
practically
recognition
epis
discussions
##iiii
metro
trusted
cowork
bowman
kenya
tencent
limits
separatist
preferential
karens
rounded
moronic
comprised
crossed
coloured
contribution
contribute
quota
suburb
midnight
##enched
package
applies
applied
enriching
deterior
amendments
sponsors
clinic
romans
telepr
endorses
endorsing
labeling
tribalism
booth
petty
split
succeeded
gathered
variety
screwing
complaint
vehicles
advocates
junkies
tyrants
holidays
undocumented
flooded
kimber
suspic
suspended
0001f496
ilhan
aggressively
ww2
##worthy
dressing
scholar
bosses
##crap
ambushed
cloths
translated
graduates
widely
illiteracy
unsafe
dui
##holder
deceased
unwed
unwilling
coffin
dianne
stabbing
hugo
wilson
analy
accusation
bucket
cookies
helmets
charlott
demonstrated
categor
butcher
launched
collaborator
surgeon
antisemitic
consistently
infiltrate
egyptian
somali
0001f4a9
mortg
mortality
##helm
sector
bronx
assassinated
sedition
signaling
supplied
deputy
oligarchs
isolate
comedy
dwar
reverend
prohibited
decreased
acknowledged
feeble
funneled
avenue
harvest
vulner
oriental
customers
hysterical
uncomfortable
plagiar
inclusive
consumers
disturbing
jessie
hammer
uplift
scandal
medicine
neighbourhood
surgery
haitian
withdraw
lawmakers
##respons
nightmare
narciss
announcement
nickname
flawed
ireland
kazak
tuskegee
vatican
alphabet
sincere
elephant
counterfeit
tyrannical
aztec
bioweapon
harsh
jordan
sophistic
presumptive
gangbang
castro
conclusion
monster
nixon
pseud
tlaib
tattoos
blacklivesmatter
inaugur
steele
graffiti
mississippi
330
6th
73
7th
82
avi
bind
bones
cv
c5
cement
cute
cnbc
dos
dia
danny
ego
erupted
fod
file
fidd
fdr
gul
hr
hay
hump
hud
horn
https
iowa
jon
josh
jazz
kin
kir
kra
lone
lists
mn
mant
mile
nas
nause
npr
oly
oce
pub
pics
rack
rod
rash
sought
sung
tam
til
tag
tub
tank
tiger
vend
vind
vine
wack
wol
wret
wicked
yah
zip
zte
zeal
##aving
##aired
##dj
##dan
##tes
##rick
##rup
##iy
##iking
##iations
##iably
##nut
##num
##nba
##gs
##fall
##lash
##bin
##bab
##bama
##bles
##box
##39
##cow
##case
##cious
##cra
##ki
##kim
##ww
##west
##pot
##88
##66
##hot
##hell
##hole
##55
##jug
thick
theor
theology
##eres
##erick
##iner
##inations
##inction
##acle
##esy
##ata
##atch
blown
##ano
##oration
##ongh
##itate
##itated
##itutes
##isp
##isan
toms
ing
inept
inhab
inappropr
##ares
##arized
