[PAD]
[UNK]
[MASK]
[CLS]
[SEP]
!
"
#
$
%
&
'
(
)
*
+
,
-
.
/
0
1
2
3
4
5
6
7
8
9
:
;
<
=
>
?
@
[
\
]
^
_
a
b
c
d
e
f
g
h
i
j
k
l
m
n
o
p
q
r
s
t
u
v
w
x
y
z
{
|
}
~
##i
##n
##d
##f
##a
##l
##k
##r
##m
##e
##g
##o
##u
##s
##t
##p
##c
##b
##v
##y
##w
##h
##j
##5
##0
##6
##9
##8
##4
##1
##7
##3
##z
##x
##2
##q
th
the
##er
##in
##ac
##es
##at
bl
##an
##ack
black
##en
##or
##on
an
##ing
##ou
##ic
##ed
##it
##is
to
##ll
and
##re
in
of
wh
##ar
##om
00
##le
##ot
##as
##al
is
be
00a
ch
##id
##us
##ent
##ion
##op
##ve
for
that
##ow
li
##em
##ol
you
on
##ist
chin
##ers
##ut
are
##ican
##ese
##ir
st
##et
##ill
00a1
chinese
##un
##ly
re
pr
##ay
##ld
pe
it
ha
##im
##am
he
am
##ter
##ver
they
sh
##os
com
peop
##ur
people
tr
##oc
as
##ith
amer
##ad
##ig
##ves
with
whit
##th
##ke
##all
##ation
all
white
##um
##ct
comm
have
dem
was
##est
do
we
american
##ould
by
or
ab
##ess
##se
##ity
go
fr
##pp
##ch
his
who
su
00af
##ate
##ce
rac
##ies
ne
this
not
##st
commun
de
af
##rat
##ust
##ian
##and
##il
their
##ant
mat
lives
##ere
if
##ore
se
##out
con
un
man
##one
##ocrat
vot
##ag
matter
##ice
democrat
##ul
##ort
##art
at
##ump
##igh
##oun
pol
will
##ain
##oo
##iden
le
from
so
00b
cr
about
trump
##ally
biden
but
has
just
afr
me
them
wor
##if
like
##use
##ab
us
##la
out
can
bec
more
jo
al
what
##der
##ment
en
she
##ew
ma
##gh
##ause
don
african
would
##ive
any
##ish
wom
ever
##ear
americans
get
##king
##ome
ex
##tr
ag
br
##iz
ar
up
##iv
sp
pl
when
pro
because
##ight
##ost
racist
were
##el
##own
part
##her
police
how
kill
than
##end
##ime
there
kn
##ica
##ose
blm
##ther
ind
##ber
##ks
vote
##ident
##ong
democrats
say
##ame
year
##ie
##ge
##oy
pres
community
your
##ud
every
her
##ough
##ap
only
rep
supp
want
off
20
sla
jew
one
##ect
##wn
##ia
##oll
##ell
other
##ard
america
joe
##ous
00b0
##pan
president
thin
##hing
coun
no
##ial
##ast
over
ta
being
##ities
communist
00b1
ev
##ue
blacks
gu
gr
some
##bl
sa
did
int
own
been
##ated
##od
party
##ep
dis
##ions
##ib
woman
now
##act
lo
act
know
why
##ich
##ism
support
##pl
##ile
should
does
mar
call
##ide
##ence
##ood
im
##panic
my
our
hispanic
indian
then
again
##are
think
##ind
ac
these
countr
pers
him
had
most
many
vi
res
see
ob
need
##ting
ad
##als
##ound
ant
##ens
person
mur
##age
dr
##uc
000
##ace
po
vir
years
##ama
men
##ild
##ath
##ip
##gr
fl
fir
##our
ph
##ick
##ult
inc
mo
loo
##other
jewish
##ft
fa
##iot
##ors
##reat
even
##ations
##ict
##ine
##pt
la
may
##urn
new
##ure
##ying
##itic
##ates
those
cl
##ass
killed
country
sc
##ists
down
virus
crim
##arr
prot
viol
going
into
back
first
per
##lect
##ents
gover
##ug
fam
govern
lat
time
##ff
too
women
bet
##ec
right
against
guy
##ans
##ade
which
left
china
str
##ree
prob
said
##estr
##ory
crime
make
##ubl
after
murder
##ving
##ily
##qu
mill
co
stop
##ied
##so
child
lead
qu
att
##way
politic
nation
id
##ang
racism
cons
ter
liber
##sel
##ea
##ire
##und
em
also
obama
##ings
##oup
mu
where
##ty
app
pre
##oot
hel
nothing
way
##ign
##ons
could
destr
acc
government
cop
latin
bus
##ach
##ary
race
soc
##00
phone
##int
bu
elect
another
much
##fe
##old
same
bel
##ked
real
help
cor
##1f
pop
mex
riot
crimin
hist
##lem
##ord
asian
dec
##og
ke
te
world
##ery
while
really
##ating
##ase
##ative
##itt
col
tell
0001f
still
law
protest
well
##ren
##oney
let
good
19
##amp
hate
sy
##ool
popul
##ved
mexican
run
tw
sch
ass
##ious
take
group
money
des
##hood
##thing
fe
##fer
##eg
put
##for
##ians
thr
##ually
##pr
##ought
got
##gan
##rem
##less
keep
rem
##iness
##bs
belie
day
problem
high
doesn
kid
very
rec
look
old
voters
offic
opp
sin
##ite
show
children
its
republ
latino
sup
med
##orn
death
family
business
##erv
bill
care
brown
##ands
terr
slaves
destroy
##ful
population
work
ir
min
communities
won
##ale
##ull
start
marx
fem
fol
##ifa
move
gen
ur
shot
organ
big
##pect
##be
made
whites
contr
202
fact
##ance
##oth
never
##day
##ower
##med
antifa
##fore
201
republican
life
done
war
##up
##ned
##ority
here
##able
op
coll
##uss
sm
def
since
ca
par
organiz
inter
tal
loot
bab
##ock
violence
##ders
##con
play
female
wr
history
##ning
##oss
##kes
slave
leaders
ain
##ather
happ
##ible
el
##av
plan
anti
great
inst
bad
under
social
vict
chic
neigh
neighb
before
stat
##uring
saying
##uct
##read
##ims
##ploy
car
##ave
cit
thing
##ical
dems
##stem
suprem
pay
##get
state
end
system
shoot
##az
school
##ago
##we
doing
city
folks
citiz
cities
kids
burn
harr
ve
prop
sen
trying
cops
media
ill
##ress
didn
##cent
##ement
##ise
actually
million
2020
must
comp
arr
called
##ically
chicago
##ail
url
ro
long
wat
##gress
##selves
##iend
give
som
mean
says
##lf
harris
terror
##very
movement
stud
anyone
imp
national
cour
##alf
better
maj
wa
##ng
cont
neighbor
lies
hun
use
##gn
##ues
##anc
abort
come
killing
poor
num
red
mon
mem
##ope
##ize
cult
es
young
##bers
attack
power
believe
##ited
##ets
last
##lud
##ee
##ugh
liberal
bas
##ra
##ives
sure
fund
color
babies
two
through
used
citizens
##ition
rel
friend
themselves
spea
hand
russ
slavery
sk
cla
##ken
around
point
half
##iss
anything
news
sou
supremac
stre
states
gun
##ry
##ants
lot
turn
##ual
##enc
inf
violent
##ittle
et
##form
kam
conserv
cre
hou
little
enough
##aid
##cept
ban
democratic
neighborhood
vp
##ially
##red
##hip
criminal
iss
##ways
##ering
priv
voting
maybe
strong
ed
organization
10
free
ins
live
love
name
##ala
etc
somet
ign
##ange
##res
includ
list
pand
##ash
##uth
resp
political
##upid
inv
##let
election
##ead
votes
exp
dif
non
##cc
today
##ason
always
during
##vid
calling
stupid
##ivers
millions
arrest
inn
##thers
find
isn
add
house
far
low
mus
##ak
##ars
pick
everyone
##ah
win
##ro
marxist
##imes
##ution
yet
allow
percent
ll
illeg
drug
prom
##ployment
both
##yp
##eral
reg
murdered
kamala
fail
something
##ison
char
##ts
##wh
camp
hard
nor
criminals
mil
head
##man
beh
watch
home
mas
##ru
hunter
##ics
word
yes
##olog
face
##ately
unt
getting
##ett
arab
wee
wants
stand
polic
econ
##ward
econom
hom
differ
gl
bre
cle
cand
##ention
using
tax
##ently
##ivil
##self
##xt
##idd
god
working
owned
deal
##ized
##osed
sw
sl
vide
##aring
seem
##ters
thought
ital
feel
##son
##uck
civil
ge
##ably
##ody
##ike
needs
##ob
##arly
100
##alif
unem
irish
until
ser
sim
##ised
majority
contin
away
fake
50
things
leg
dep
alread
already
boy
dead
lab
##tain
liberals
happen
##ality
##ush
imm
pot
##kk
##br
##han
thug
fight
times
##used
wrong
educ
milit
##ute
ste
without
congress
someone
##black
privile
giv
##igr
less
chr
reason
compan
esp
##ember
disc
lar
sur
00aa
geor
pan
sing
sub
culture
##alth
hum
##ey
such
usa
making
claim
doll
sec
##ted
likely
covid
racists
betwe
running
unemployment
between
ra
rate
adm
ignor
##rupt
sor
##ven
00ae
##istr
pos
cho
next
pret
equ
##ox
instead
south
told
conf
businesses
open
fin
few
found
rest
looting
father
pat
##ook
ent
flu
skin
##les
##ames
##ortun
guess
musl
thous
##its
having
true
famil
ok
##led
##ired
read
control
each
mal
wal
sold
##cer
jobs
officers
oh
neighborhoods
italian
cap
##na
##arch
##ote
##land
##ecially
##iet
africa
cause
##gest
##ered
##ream
##armed
ref
riots
eas
fun
publ
candid
fre
job
united
plant
report
probably
0001f6
remember
friends
conservative
##ior
threat
##ades
mayor
wonder
inves
##omin
trans
jama
##ged
tot
especially
past
rights
billion
republicans
midd
self
expl
victims
students
aren
families
gir
form
aff
consid
else
peace
##ba
order
unders
repar
christ
justice
crimes
best
##ork
##ott
##ollow
##ced
racial
idiot
month
makes
everything
quest
ident
middle
underst
hold
place
prof
gang
wu
##ject
change
countries
parent
immigr
##air
week
video
art
##rael
follow
##ix
##ny
00a8
trib
##ellow
murders
cur
paid
##vers
israel
##vel
gets
including
prison
owners
mark
members
invest
become
speak
13
sign
try
unarmed
privilege
eff
full
elected
corrupt
record
oppress
terrorist
rap
protect
george
##umb
adv
single
##nc
thousands
##los
##oke
##body
sell
wuhan
18
cent
##ator
##imin
respons
girl
reparations
da
har
lost
poll
##oud
##ither
flag
number
campa
public
eng
##ending
communists
simp
##ever
##icul
##ased
##ional
commit
bring
plantation
campaign
cu
pur
##io
##ount
victim
illegal
exc
dam
mass
tar
alm
male
##ared
understand
##ont
##unch
##tern
whole
matters
means
office
schools
abortion
human
15
main
##ond
least
ear
los
loc
officer
ben
##iting
course
gre
##iter
00ad
##emic
ens
looking
socialist
kkk
mor
pass
##ler
talk
ret
##the
except
##ief
talking
##losi
hat
pain
##atives
politicians
ho
anth
##ented
ligh
military
kind
chec
once
mind
##ices
term
decades
thugs
jamaican
others
200
accord
post
cond
const
class
ones
ext
street
##ness
pelosi
seen
##gry
issue
crow
ago
##ude
intell
##uction
fed
rich
##ald
truth
ask
desc
different
candidate
son
sent
blame
repres
bo
che
troll
almost
##anger
##iously
planned
vis
##he
succ
wouldn
started
innoc
muslim
born
came
abs
burning
dollars
might
education
either
tre
##ner
##ling
among
spec
evil
histor
27
unless
agree
thinks
import
identif
det
ny
##vi
hair
buy
problems
minority
entire
according
hu
native
three
demand
taking
looks
opportun
deaths
hope
ru
sn
##ank
leftist
societ
build
proper
dnc
went
coming
took
created
16
sol
##ured
##ments
destroyed
systemic
success
hit
jud
pu
rid
sad
though
##lease
wearing
##oyd
mostly
groups
gave
##ret
steal
innocent
25
poss
sus
angry
##oub
floyd
##eah
rioting
russian
economy
parenthood
ey
none
##ined
##reg
hey
arm
question
hill
sit
##ility
along
exact
seems
40
ap
push
##li
##att
living
##ures
conv
prod
supporters
##irect
den
eur
naz
set
sick
##ban
hell
##anda
shooting
##lete
cer
spy
telling
jail
##ton
##unk
wasn
light
ce
died
mess
##ient
##ove
block
goes
##els
desp
##ettle
freed
anthem
king
miss
##ger
##ides
lear
worse
propag
listen
large
patr
cc
mother
univers
##ages
knows
allowed
ensla
bar
sound
hispanics
respect
coron
hon
land
treat
##acy
trad
trade
##iff
gener
interest
exper
given
society
ball
rad
##hn
hear
##ortion
jews
hur
lol
uk
##inc
tra
case
fac
fear
hands
##ases
##aged
cann
enfor
brut
kne
sil
wall
##uff
chief
reform
##amed
##verty
john
agend
poverty
appro
days
players
ccp
due
direct
##gin
anc
stay
wanted
saw
policies
males
hol
mich
side
##ience
##fl
##izing
leader
numbers
europe
er
yeah
##ats
welf
colle
continue
welfare
fig
typ
cauc
##ology
kettle
line
nba
##ony
##using
suff
##ilt
##eges
court
streets
##ped
##ones
##ark
behind
company
hor
lad
beat
guys
complete
target
ms
val
##ators
concer
##orts
donald
taken
incre
##itted
##ample
colleges
supremacist
property
doc
div
##ne
##sw
##pet
proud
glob
responsible
check
certain
##ife
##ished
acr
tech
30
60
##ams
sever
repl
pandemic
12
##ys
grow
##undred
inner
across
hundred
##ipp
##asc
##ocr
sex
result
panthers
college
pred
demon
activ
small
bank
issues
lying
pull
##bi
toward
shut
destruction
##ughter
based
pandering
propaganda
14
divers
mis
##ck
##ense
##ising
example
brought
spread
progr
marxists
curr
agenda
global
vo
##uses
##ards
view
account
##cond
invol
##uly
##ph
##rect
##ether
enem
guns
failed
fool
compl
qualif
night
warr
toget
##verage
deb
##aining
brain
genoc
together
jack
mom
mention
san
blue
force
forget
front
seg
thinking
laws
protesters
destroying
lowest
labor
federal
represent
exactly
11
fox
##ef
top
second
supporting
higher
2016
wait
##ught
enforc
90
die
distr
##cle
weap
resist
obv
funding
total
##ern
rece
health
outs
protests
parents
rob
gay
yellow
##ake
##lam
whether
story
known
imag
ide
rioters
controll
##others
defund
homes
admin
simply
mult
rates
##just
answ
whate
##ived
##ended
idea
whatever
##nn
##erate
##iding
grand
realize
##ully
words
soros
fal
food
unf
voted
##ague
himself
workers
russians
north
clean
fighting
fire
hates
ment
nar
##lish
##rain
##ming
##ital
##itution
##ots
##irus
washing
##antly
attem
assa
market
purp
huge
calif
dumb
##ier
rev
wealth
##aps
prev
mask
cele
aw
mr
##lu
##por
able
##ancy
funny
bor
coup
est
fat
please
send
##rimin
blood
##itch
##ops
lie
expect
marr
politics
sorry
genocide
cart
##ins
heard
worked
impr
fav
general
smart
address
companies
intellig
several
fel
##eign
enc
0001f4
0001f3
pupp
enforcement
ath
eth
port
vice
york
##aud
##mm
step
##ained
bull
##ornia
iran
2019
pretty
auth
cath
fbi
lose
wish
##fully
##gy
##par
ann
disg
conservatives
coronav
ger
##ung
comes
soon
crap
supremacists
discrimin
hillary
coronavirus
doub
fil
liter
##ected
disres
months
caucus
california
sat
serv
level
worst
##ified
bro
india
supposed
employ
arrested
0001f60
freedom
false
cathol
disrespect
forced
races
##idents
leadership
radical
kneel
washington
dude
nfl
##ball
chur
rele
##oci
##ains
action
close
speaking
giving
opportunity
danger
test
##orities
stuff
worth
ignorant
product
ukrain
imagine
church
gar
rather
comment
critic
shows
wake
##istration
former
profess
horr
##yn
##ided
deep
##ific
##ibly
shootings
##where
brutality
bi
fur
nice
west
##ping
##wood
##aming
within
##ials
seeing
clint
##quote
protesting
oper
defin
major
##view
lady
holl
tv
##onna
meet
plac
associ
absol
blockquote
segreg
bunch
east
hating
hyp
names
ow
##icle
gov
fraud
mob
emb
relig
percentage
christian
controlled
narrat
average
di
##like
##icking
##ision
islam
##uted
##eth
heart
##iving
accept
sym
statement
##ences
secret
holly
air
jim
net
##t1
foreign
homic
idiots
treated
enemy
administration
disgust
absolute
70
cut
dom
occ
##aking
##ges
stor
leave
enter
dont
actions
drop
196
benef
cannot
assault
couple
athlet
##ten
##ces
comments
wear
crack
afraid
exist
progress
teach
member
supremacy
happened
favor
nancy
##to
anarch
chang
asked
correct
0001f9
statist
regard
behav
choice
investig
effect
extrem
hundreds
answer
literally
les
mate
##ms
##orter
##rew
press
shir
biggest
looters
book
xi
##dd
##ging
##ural
trave
##igin
voter
however
economic
break
totally
tribes
domest
80
creat
hous
##ines
##oph
##ows
##urs
truly
corpor
turned
taxes
immigrants
important
##attle
clinton
narrative
24
cnn
fasc
gone
whose
areas
##ird
outr
supported
march
scream
playing
happens
drugs
peaceful
ethn
domestic
card
dat
mast
##app
common
##ept
dispr
supports
cover
appar
decl
senator
descr
suspect
foc
foot
##ero
##ises
chance
dog
neg
##ste
dev
##idence
max
thank
caused
##eech
watching
posit
selling
sounds
attempt
athletes
av
cases
fut
jes
sle
##aire
##yr
area
proc
arg
speech
count
stra
helping
deser
funded
depart
oppressed
border
hollywood
17
21
carr
nations
wife
##iver
##ral
##ida
origin
##essed
africans
##ively
folk
terrorists
masks
walk
involved
warren
lesb
f0
lack
mag
tired
vs
vac
##oint
##per
##well
##olution
lebr
indians
stopped
helped
facts
baby
relations
claims
losing
successful
ancest
completely
disprop
9f
dark
mad
pa
sem
##ring
##oved
##tim
committed
##oooo
flor
consider
damn
green
universities
honest
bur
fall
four
mou
rul
vers
##ij
##ites
##isc
refer
##ational
sug
appear
influ
congressional
finally
capital
special
disproportion
dad
wing
##by
##ushing
sense
german
masters
sal
##ik
##ink
tried
abol
notice
##ization
couldn
throw
eastern
learn
hurt
dangerous
fellow
iv
na
##iate
##ael
##entia
##une
##urity
##thern
adop
##athers
minorities
interview
statues
attacked
##encing
##formation
legal
local
##stein
lebron
florida
town
##omo
nearly
##aging
cance
spo
kills
##ashed
raised
gangs
0001f602
ethnic
jesus
22
cost
gop
gonna
##fact
##lers
##mer
##how
##oming
requ
comb
##osec
intim
##epy
putting
paying
threaten
board
doct
district
puppet
data
bs
cat
fill
fix
nomin
##over
##ann
##ored
begin
short
dementia
##rated
##icted
super
norm
earth
techn
towards
diverse
married
encour
catholic
further
behavior
future
gh
kept
pict
tear
##eed
##ining
##itage
token
bea
##irm
prosec
demo
uncle
heritage
##aph
team
happy
points
create
##iculate
return
eyes
message
outside
barr
hood
##lus
##ma
##aced
##osing
unb
ali
senate
ignore
promot
position
equal
articulate
english
cuomo
nyc
jackson
hypocr
absolutely
ancestors
mouth
suggest
bal
kl
##bc
##erc
##ury
manu
craz
plus
yourself
owner
nationals
##ency
policy
excuse
identify
patriot
michael
netw
apparently
led
pen
##iday
##ols
amaz
##ivid
knew
difference
security
weekend
girls
msm
current
aoc
ba
dict
jap
kick
lyn
named
tick
##atic
deli
##oof
laugh
aborted
cheap
270
nazi
celebr
straight
intimid
japan
23
hers
james
lower
mist
nat
nuc
ran
tom
##ential
suc
bright
brother
armed
individ
##ield
incom
respon
condem
army
enslaved
concerned
manufact
fathers
woke
zero
##asing
cha
youth
held
##stream
manip
exec
##endent
##ibility
actual
latinos
199
russia
boys
mainstream
possible
voices
products
nucle
manipul
ach
##aur
##go
##ender
##utes
asking
prov
slaughter
event
calls
##iple
intern
weeks
surpr
stealing
revolution
segregation
extreme
base
squ
##aw
##hold
injust
shar
alleg
unlike
##iful
spies
knee
keeping
cares
restaur
paint
constitution
nazis
purpose
statistics
describ
beaut
bit
bir
dc
ml
##more
##val
##ino
##ument
union
takes
save
driver
assum
abortions
choose
0001f62
following
judge
nuclear
26
bought
cens
dir
lou
pushing
##dc
##sh
##aching
##iti
forg
##unt
##ulting
evidence
immed
fair
buying
197
showing
reported
trait
resisting
lesbian
response
fought
ppl
path
sist
##iers
##ued
##haps
##0s
##instein
##any
pract
trash
alone
later
emp
tex
attacking
basically
financ
article
descend
unfortun
ivank
achie
hus
pun
ut
##mber
##ction
##ilar
select
became
brit
mayors
perpet
governor
breaking
clearly
crazy
dist
kore
ol
om
wes
##ease
##cy
##vember
brothers
plague
november
ground
fault
perhaps
reality
##ogn
twice
feinstein
opin
elimin
dollar
considered
immigration
predomin
released
travel
35
bud
ele
early
hot
hour
pie
##rop
##set
##wise
##19
##ico
##imate
##oses
near
thanks
hero
disq
incar
clear
muslims
simple
crowd
trolls
experience
qualified
places
lynch
ep
roll
##aff
##enty
sports
supporter
##ground
income
remind
recogn
caught
wins
videos
pretend
affirm
hole
vacc
##timore
disproportionately
ivanka
western
disqus
incarcer
34
mot
##uation
##yle
##icks
##ompl
shit
canad
upon
needed
personal
moder
built
highest
recently
urban
charge
panther
cartels
doubt
baltimore
louis
affirmative
pal
rese
##za
##utions
prim
agre
particul
presidential
##ensive
recent
2018
standing
discuss
confed
explain
historically
program
programs
weapons
obviously
portland
disgusting
network
45
fine
host
##ii
blaming
pra
tro
commie
span
plat
provid
phil
scared
quite
attorn
##igned
accompl
potus
explo
##aires
hatred
brainw
homicide
ghett
ticket
beautiful
texas
attorney
jer
met
##kn
##oid
##cil
##book
##itter
store
heav
##law
spent
indep
##graph
incred
believes
defend
causing
investment
oppression
daily
barack
multiple
normal
cam
game
pock
##iately
##dy
##ees
##ane
ang
information
trust
##chin
conn
cred
##apol
suppress
grad
appoint
accent
citizen
attacks
failure
walking
christians
building
hitler
johnson
aut
cow
ul
wow
##uel
##0f
##zy
##asio
lied
shame
##str
seattle
lea
cry
mail
killings
otherwise
council
leftists
lets
fe0f
billions
bigot
raise
passed
certainly
horrible
incompet
research
75
ah
bow
foun
ken
mod
##ole
##band
often
##etic
proof
willing
##ify
project
murdering
attention
officials
career
starting
waiting
##ances
private
##while
serious
claiming
european
prevent
immediately
300
47
bed
domin
eld
##line
##20
##atter
##ouch
lib
stated
mao
phot
scott
##ugg
politician
decent
opposed
minne
supreme
southern
illegals
##velop
corruption
intellect
apart
silencing
weapon
obvious
discrimination
department
injustice
500
dream
linc
mart
ten
##ax
##lant
##my
##ub
##uce
bloc
thats
lim
##oln
reject
pray
##anted
prove
everybody
safe
mexico
organizations
burned
insult
promises
claimed
rape
demanding
wealthy
270a
lincoln
28
late
rice
wind
##sy
##te
blind
##uts
subs
develop
##rats
separ
anyway
counter
virt
moving
prefer
asians
##itten
esc
refuse
easily
detro
eye
growing
embarr
##apolis
elder
08
bord
fly
five
kar
mix
picking
ren
##ners
##bed
whom
door
deg
atlant
worry
uses
nobody
somehow
residents
picked
allowing
##verse
rule
treatment
type
intelligent
intelligence
0001f3f
changed
0001f92
shirts
housing
maxine
unfortunately
minneapolis
embarrass
borders
jan
lock
mand
round
song
##bing
##eter
nec
deals
age
##aches
descent
water
student
infected
include
invented
regul
charged
equality
soldiers
easy
committing
moron
ukraine
religion
japanese
detroit
06
07
31
box
bern
hop
sand
swe
tens
##down
##ka
##row
##oe
##pir
##vie
##joy
##que
##ina
##atory
chick
##usion
compr
##ceed
##andon
cross
anymore
##elf
colour
colors
contrib
collect
meaning
lots
admit
historic
despite
figure
received
service
##chinese
founder
dim
nons
root
sort
##fect
##ble
##acp
##ications
bey
share
doz
communism
trumps
##ifican
plenty
offend
##action
shouldn
##pton
leading
quot
employment
twitter
##ission
##ological
seriously
subur
holding
ballots
increase
replace
owens
stores
regardless
amazing
herself
opinion
aust
bott
dying
rally
##each
##ta
##ps
##com
##ham
##ene
forward
lif
reb
pros
haven
goal
joke
maf
therefore
repe
county
looked
showed
largest
hoax
debate
influence
doctor
birth
bes
bag
iq
mid
tur
##rd
##zz
##ench
##ories
##iced
##arks
##iment
peoples
##key
webs
##antage
mattered
attr
worr
guil
guilt
log
##ips
room
role
longer
cultural
dealing
openly
capt
refused
polling
damage
interesting
values
garb
symb
progressive
focus
positive
cancel
british
confederate
09
gain
je
pack
pig
via
##atically
lived
##ements
trill
defe
##ounce
bidens
becoming
alive
##itely
regime
camps
founded
considering
tribe
daughter
harm
approval
typical
naacp
catch
mlk
##ropr
platform
beyond
29
der
dav
eat
fit
kong
mothers
ped
que
restr
ties
##men
##pay
third
##iny
##arian
##arily
##vement
##ille
enjoy
##berg
viet
appl
assist
##ference
territ
planet
music
similar
##ledge
questions
terms
estab
meeting
govt
creating
guilty
32
jess
rh
ris
yell
##au
##hh
##illy
hearing
##osen
orange
##iant
meant
##ifically
enr
sheep
indust
##ape
faith
perfect
colon
tells
wars
neighbors
compet
##ails
meanwhile
taxpay
okay
candidates
effort
responsibility
polls
grew
deter
situation
generation
traff
directly
kneeling
outrage
abolish
picture
chaos
husband
predominantly
palest
spanish
##ificant
85
99
aud
award
jump
kiss
##iod
##nes
##nam
##light
##ov
##biden
##ester
##isl
prior
amend
sha
##pper
spend
spons
##blm
disapp
moved
clin
clos
elections
goods
removed
instit
throughout
master
slow
educated
harass
massive
opportunities
fascist
version
technology
elderly
mafia
website
hong
hang
lang
rat
sour
##fr
##vant
##acter
##rec
reach
amount
abuse
agents
killer
sav
disease
period
##ords
oppos
2017
written
statue
household
##whel
georg
billionaire
advantage
central
painted
specifically
university
honor
concern
ideology
entertain
screaming
deliver
condemn
provide
descendants
piece
vaccine
troops
nonsense
cod
eating
hide
sum
sanger
ver
zones
##aa
##burn
##ville
##30
##inated
anim
##icip
libs
##terday
shop
goog
neck
##udes
everywhere
##aper
overwhel
##uced
attit
tele
highly
greatest
socialism
endors
studies
speaks
label
subject
pretending
tribal
century
convin
traders
replaced
##ipped
activists
voice
broken
employees
occur
avoid
process
adopted
combined
filled
restaurant
##know
incredibly
georgia
boot
body
cas
cust
cash
fle
hire
rom
##iest
##ket
##uals
##ana
##alized
##alwell
##olen
##istic
star
##thy
league
anywhere
upset
wanting
##acted
loves
personally
scam
strugg
access
ended
compared
banned
yesterday
##ucky
happening
privileged
bringing
locked
visas
sitting
generations
suffering
results
definition
dirty
photo
vietnam
cdc
fing
fist
fast
hated
hired
nom
ug
wed
##foot
##oes
##path
##come
##here
##ination
##arant
##oms
##erson
##ocking
##aded
##this
democr
above
##ession
##ooks
##tra
##izes
acknow
driving
dressed
background
lawy
terrible
senile
rober
basement
character
swalwell
continues
legisl
ridicul
pulled
diversity
negative
unborn
sharpton
alleged
hours
modern
incompetent
langu
1st
bure
cly
lb
lands
loud
pet
##uary
##ube
##you
##eren
##ref
beating
beij
stick
wel
abiding
works
##ift
spl
particip
somebody
firm
closed
scum
schiff
##formed
keeps
remove
republic
funds
##itional
respond
glad
slight
boyc
protecting
cuban
wallace
suffer
value
increased
##ipping
sanct
definitely
succeed
brainwashed
necess
prosper
beijing
36
dims
fans
gather
kany
owe
rise
tim
var
weren
##ray
##ha
##oper
##iring
style
itself
troub
commerc
sudd
taught
granted
scient
quick
liberation
embr
busy
belong
iron
marxism
millionaires
insur
promised
deadly
ignoring
immigrant
apolog
pushed
listening
eric
defunding
sympath
germany
klan
assume
mixed
atlanta
overwhelming
clyburn
sudden
400
cast
href
jung
kent
lem
vast
##ergy
##eng
##ley
##ota
stolen
release
amp
whitey
weak
##sequ
note
manag
##bling
disag
marg
obs
drive
##ourn
screw
strate
decided
cared
waters
useful
pander
swamp
ignored
significant
identifies
possibly
complain
moment
maga
extremely
ridiculous
language
kanye
dna
gold
mach
nav
nurs
tact
##fs
##kers
blah
##ication
##itarian
island
##vert
##umer
##iance
##iled
search
join
##ival
##oyal
acting
##ples
fired
quit
appropr
letting
minutes
socialists
veh
road
impeach
related
turns
##enced
facebook
fatherless
efforts
advoc
engine
visa
historical
convention
activist
felons
double
football
pawn
0001f62d
traitor
accomplish
intellectual
symbol
risk
google
nomine
95
dar
dies
field
gates
junk
six
sending
tyr
ya
##uing
##pting
##bre
##wan
##jud
chose
forever
likes
yout
ree
reas
demands
abandon
indoc
##elly
intention
scar
conspir
protestors
believed
2021
smo
played
##ucture
study
failing
surv
affair
tariff
lightfoot
learned
mentality
author
association
benefit
sleepy
threatening
ghetto
connect
bernie
trouble
dump
gives
jones
mc
##ih
##mail
##gl
##ss
##tw
##co
##anna
tow
##arter
##oles
staff
reve
##ament
##ading
friday
suck
convers
unif
hasn
##ability
expr
brib
myself
drag
incident
backs
apprec
0001f1f
195
designed
feed
medical
wrote
citizenship
heads
serve
depend
potential
larger
ready
transg
advance
purch
holiday
announ
satan
corporate
corporations
deserve
relationship
rules
manufacturing
slaughtered
forgot
sisters
punish
independent
pocket
credit
besides
palestin
reasons
indoctr
bul
gas
journ
ka
mer
ple
wit
##cing
##bur
theft
##acher
blake
blackmail
##ales
liar
stood
stands
dear
und
##ulate
usually
anybody
present
offensive
owns
diss
##aret
flood
movie
lazy
governors
murderers
accused
bub
hateful
basket
handlers
turning
creepy
promote
slog
deport
reports
jamaica
identity
profit
constantly
europeans
pulling
currently
aware
levels
professor
original
prosecut
demograph
territory
establish
lbj
gee
ice
kim
punch
psy
##ients
##nd
##ron
##gb
##wor
##wide
##11
##xual
thom
##inting
##anch
ine
chains
trained
##uments
committ
conc
lew
crying
energy
donations
spew
tai
clown
scot
politically
emer
bush
gender
contract
2015
collusion
causes
millionaire
soul
infect
candace
humans
thousand
reading
solid
susp
largely
corona
holder
divide
globalist
views
receive
0001f49
ukrainian
religious
teachers
anarchists
appears
individuals
surprised
pathetic
financial
korea
canada
comprom
jesse
nursing
nominee
02
aka
bom
cy
dare
il
mike
pla
touch
##iated
##lor
##cr
##77
##ert
blank
##anny
##acked
##enn
##oring
##ona
##aster
beg
fort
##etor
##uries
ash
##iling
consequ
##ooked
sole
aggress
spoke
spring
knowing
incidents
scary
quote
teen
institution
inside
##idden
foundation
entit
earn
morons
rub
cannon
chiefs
ideas
improve
felt
positions
argument
alien
leaving
david
amendment
transgender
thomas
taiwan
41
cir
dou
dum
lin
ramp
tour
ww
##iation
##af
##eal
##pe
blasio
##icated
##itive
##ashing
##entially
stole
##ays
training
##ocked
##igan
##rating
##ilities
agent
broke
intent
dism
impl
dress
science
##seless
ways
schol
official
defending
greater
shoots
ess
policing
affect
raped
riding
sadly
convicted
missed
facing
targeted
complaining
mentioned
multi
associated
homicides
houses
individual
bottom
bureau
jungle
unifor
38
33
56
cant
era
lic
loyal
lgb
rand
rif
ted
yr
##ius
##lords
##ky
##egr
##back
blow
tool
intr
##aries
began
chair
chosen
stere
amb
shout
##oca
##sters
##ocrats
matterblack
##ounts
##elie
offended
guarant
displ
persons
##ipe
prejud
decide
decision
teaching
lawless
##orning
bigger
2022
defense
interference
senators
watched
tradem
faces
michigan
targeting
spreading
##ernick
unfair
celeb
cartel
worthless
effective
shirt
beginning
promoting
mistake
1994
eventually
international
budd
autom
martin
animals
ugly
robert
disagree
youtube
lewis
46
44
bat
boss
cal
cold
games
morning
odd
pow
rare
rats
tough
vand
##ship
##14
##xy
##erous
blat
##icit
##icious
##itions
toler
##otyp
##asion
00a0
onto
train
##though
##they
orders
french
##pped
mater
##abeth
arson
parts
presiden
everyday
offer
acts
##ipt
cloth
perman
gotta
##lessly
eliz
instr
stats
status
arrived
homeless
subst
transl
fully
protection
haters
treason
sniff
robber
investigation
daddy
spoken
encourage
aliens
utter
recognize
particular
provided
gradu
worried
industry
tariffs
55
btw
mi
migr
nike
oct
sun
ton
tort
wide
##ium
##iors
##ney
##aks
##oving
##t0
##64
##70
thus
##icult
princ
##osp
comr
tries
abused
##ston
sea
although
exam
##trump
indeed
##elle
##plom
adult
virgin
famous
latest
##estry
prec
twe
gotten
carol
insane
included
dealers
dependent
surve
funeral
center
flags
knees
sexual
mental
supposedly
disrespected
diplom
occup
devil
laughing
celebrities
austral
garbage
rhetor
clinics
necessary
lemon
margaret
conspiracy
conversation
journal
kaep
presidency
3rd
53
52
aug
fan
hiding
ker
kelly
mj
rock
tem
veter
wild
wanna
yep
##aken
##uit
##ya
##40
##acial
##ores
##ita
##ids
stock
##lying
##ocks
##adel
##allen
unr
unle
soft
cru
justified
usual
shel
nob
integr
loving
pool
mobs
scr
columb
schumer
thrown
systematic
illiter
added
##ahah
legit
raising
afford
hater
minds
2008
constit
snea
solution
ballot
ancestry
division
broad
islamic
sleep
carry
barry
achieve
omar
particularly
philadel
exploit
ahead
dozens
logic
boycott
reelect
bulb
basketball
lgbt
stereotyp
elizabeth
philadelph
bols
eight
fif
jin
june
lap
mol
opt
pure
picks
vill
##ds
##dem
##gu
##tt
bless
initi
##omes
##aled
chann
forces
##ety
prize
haw
shown
track
##throw
uns
mans
cris
space
guard
saving
phys
backed
perm
corn
corner
key
198
starts
2012
##uctive
waking
includes
addict
winning
serving
chris
ignorance
skinned
ordered
signed
exclus
mainly
loser
interests
figuring
suffered
growth
imprison
1960
referring
ethnicity
unbelie
patriots
dictator
dictators
squad
camer
angel
separate
affairs
slogan
psych
committee
##ocaust
virginia
kaepernick
01
72
core
du
dut
july
kung
rab
rnc
sens
site
tat
##kin
##mart
##oom
##bo
##but
##hem
##hol
##inent
##eness
##educ
##asian
##astr
challen
##imed
##ami
##thod
allies
weed
fred
noticed
del
dece
unw
willie
worship
##lare
indic
overthrow
saf
##ode
disp
resour
flight
##ourge
phr
coff
player
cars
monday
handler
skill
houston
diff
arabs
civilization
militia
records
centuries
150
sentences
cheat
judges
desperate
holocaust
fools
acceptable
stories
throwing
incarceration
jeff
determ
disappear
households
lawyer
strategy
appreciate
random
trademarks
carolina
##thodox
42
cia
dorn
h1
opr
rush
sac
till
tiny
witch
wisc
##ker
##oor
##ties
##inn
##ening
##itism
##isy
##arity
##asm
##istan
##isted
##under
shoes
##ums
demented
orthodox
neither
##anding
becomes
exists
brand
spot
spir
##eless
##asty
##bled
scourge
lefty
prep
pregn
##onsin
minnes
ending
somew
numerous
powerful
handling
standard
served
holds
markets
kinda
visit
snow
experi
figures
purple
expected
iranian
operation
secretary
fascists
departments
honestly
threatened
doctors
intimidation
heavily
model
subsid
degree
january
offenders
attract
restrict
finger
welcome
various
commercial
suddenly
##ength
witness
##burg
jinping
difficult
oprah
wisconsin
bare
battle
cell
cull
din
dian
dunk
gent
hij
hiring
lun
loss
mut
pac
tend
##ze
anger
whining
##arm
##lex
chant
stamp
pride
##that
depr
delaw
willi
##aine
lee
extra
##ously
overt
grab
disgr
actors
persec
resign
reserv
pointing
##asses
emot
feb
puts
remain
older
females
collud
talks
terrorism
colored
handed
farm
illegally
charges
choosing
confused
pastor
understanding
##hevi
setting
debt
filthy
catholics
churches
professional
anarchy
regarding
##oooooooo
manipulate
traitors
defeat
attitude
acknowledge
splatter
management
intentionally
compromised
rhetoric
unrest
philadelphia
crisis
minnesota
delaware
bot
bail
jr
jac
mir
pp
poc
rent
uh
vile
##nbc
##ration
##port
##47
##enous
##iciously
##usa
##olf
stab
reven
heck
##alled
franc
concent
managed
butt
mel
alike
env
entr
proves
proven
##astic
loose
acad
drunk
fauc
cool
cooper
letter
believing
talked
elite
planning
compare
sometimes
feels
##ucker
surr
subm
admitted
wondering
##otten
earli
sentence
represents
enslave
increasing
replac
enemies
0001f44
iranians
authority
biological
##ophob
suspects
required
nominate
pictures
natural
restaurants
empower
primary
primarily
0001f923
trillion
taxpayer
sponsored
vehicle
bubba
consequences
blatant
safety
phrase
cullors
bod
cab
hug
hmm
mere
mong
meth
nu
nc
nick
obl
tit
useless
van
wil
yo
##iar
##nel
##lock
##ober
##off
##tf
##inder
chop
forb
##ister
##ires
##irates
##urally
trip
##iger
weird
delus
##rators
sees
conven
uneduc
##ulent
##aint
meas
partners
suppose
loans
##ucks
phony
murderer
coal
apply
accounts
mexicans
feet
minim
organis
handle
insulting
listed
arrests
arresting
addition
promise
##kkk
walked
refuses
exclud
exceptions
ruined
buildings
solve
mission
enslaving
silent
beaten
activity
qualifications
attempting
felon
dropped
benefits
carrying
semitic
tearing
hypocrisy
execut
dirt
motor
motiv
sanders
suburban
hanging
delivered
summer
labeled
custody
legislation
ironic
express
circ
display
prejudice
instruct
bolshevi
channel
resources
jacob
earlier
uneducated
39
48
ber
band
bother
bang
coc
dig
hind
lay
lines
mine
nasty
overse
pants
tay
wood
##ai
##ros
##of
##oon
##uan
##hen
##hib
##12
##inct
anal
##ouse
##icles
##isse
##isive
##isions
##lly
##rel
whe
##ask
isis
betr
beans
stations
stating
##eted
##illing
##imately
##igg
##ested
ability
suit
##ander
##iles
conqu
unions
plot
plans
killers
knife
events
groc
##blasio
owning
object
##ounded
##iped
fires
scene
coast
empt
destructive
accus
buff
declare
syr
populations
doesnt
recru
irony
smell
interact
elites
systems
impact
nationalists
northern
headline
continued
walmart
wonderful
losers
moral
painting
crowder
identified
huh
hills
denied
patrisse
silence
approach
sexist
favorite
decline
declared
dogs
spokes
described
appointed
hoping
roots
queen
yelling
convince
embrace
machine
tactics
pawns
scotus
plaza
linked
scholars
buddies
october
australia
columbus
constitu
sacr
dunkin
taylor
37
59
az
aint
athe
buck
bob
cate
cook
eg
eu
e2
gear
hes
mic
nad
nine
overs
portion
rb
ruth
si
wage
wave
zone
##don
##away
##ront
##uch
##col
##head
##joe
##13
##24
theory
##inking
##ature
##ania
inj
##lement
cher
##enth
stuck
prime
hall
americ
waste
##pping
##ched
sue
notable
##ilit
section
cong
lect
##abl
outbre
joy
donuts
nov
##enses
perform
quid
attend
consulate
helm
governments
decade
design
recall
irre
minute
interr
##encies
charl
standards
legs
confir
opening
reporting
earned
conduct
hopefully
susan
denounce
learning
hurting
michelle
caucasian
horse
predators
demonst
sanction
totalitarian
0001f3ff
0001f3fe
critical
progressives
anarchist
outraged
##isco
require
kicked
surprise
censors
sister
incarcerated
agreement
discussion
ghettos
independ
virtually
rebu
trillions
audience
shaun
source
reached
sanctions
insurance
navy
impeachment
smoking
institutional
entitled
betray
categ
rbg
43
66
94
bike
fish
fell
fuc
fuck
gins
hack
hust
hosp
pim
pard
page
paper
rout
sam
sund
silly
tik
um
wages
##iel
##iority
##ikes
##fort
##father
##ex
##ster
##side
##pre
##vard
##yan
##esh
##icing
##rets
infer
##levant
##othing
liz
##empt
reverse
aside
##ager
##agan
butch
##abor
exch
knock
##elled
acqu
seek
seeking
launch
strange
strike
stopping
accident
realizing
teacher
collabor
elit
carson
endless
reduce
basis
##hips
issued
invasion
behalf
swing
switch
legally
surge
equity
equally
confront
opened
ownership
signs
harvard
purs
massac
anthony
200d
educational
sites
traditional
hurts
faced
approx
##ascar
grandm
estate
deeply
adopt
penn
bait
deliber
celebrate
nature
manipulated
louisville
pockets
captured
assistance
traffic
opposite
entertainment
telev
democracy
allegedly
accomplishments
connections
announced
prosecutor
demographic
ashamed
chairman
automatically
august
nobel
somewhere
fauci
##colm
irrelevant
interracial
aunt
b3
boo
bio
bats
cock
dudes
egy
hy
jih
kush
luck
oreg
piss
table
vent
##iable
##ique
##dom
##aft
##ean
##obe
##ux
##bit
##50
##80
##orice
##icals
##isem
##rees
00a4
chuck
stance
haiti
shops
trick
##alley
commission
##ests
doj
weather
suic
sued
##iltr
math
unit
##uls
justify
alot
braz
##izona
arizona
parties
##osexual
indig
saved
##ibuted
lob
loved
actor
antisem
protester
##qualif
quarter
consist
helps
teams
thru
oppose
factories
looted
##ployed
compar
##ailable
nationalist
reduced
infiltr
exposed
prominent
italy
feeling
1000
secrets
malcolm
raping
harder
posted
conditions
absent
1619
arms
ceo
despise
director
ancient
figured
divided
divisive
globalists
receiving
previous
bullsh
employed
owes
assaulted
changes
available
sales
abolished
baiting
describe
eliminate
heroes
epid
canadian
praised
jerusa
kenos
regular
sweet
taxpayers
closer
opposition
scientists
overwhelmingly
kentucky
essentially
licorice
kerry
illiterate
imprisoned
camera
##ophobic
bodies
empty
pardon
egypt
jihad
oregon
jerusalem
49
57
bast
jam
muse
mcc
rip
rog
sides
wtf
zed
##iating
##dling
##lo
##kins
##ror
##ric
##mo
##mas
##ware
##10
##erve
##itute
tools
inher
champ
lift
##iron
station
##ete
prost
##ads
##allow
##sea
france
frank
##ching
racially
seat
sept
agencies
spying
spike
beings
margin
myth
obtain
obey
flies
philly
launder
climate
strip
structure
accur
realized
decisions
worldwide
assets
2013
organized
write
statements
systematically
arrog
roaches
somal
##ancing
reduc
memor
surely
turnout
policem
educate
congressman
confl
patients
reflect
refusing
threats
followed
advis
loses
retard
checks
demanded
successfully
interested
ladies
demonc
demonstr
robbed
addressing
encoun
0001f4a
germ
criticize
embass
##ophy
##owser
attempted
costs
nominated
census
rolling
accomplished
window
flying
embarrassment
chicken
dozen
repeated
institutions
endorsed
convinced
quickly
tower
rampant
vandal
tonight
angeles
tatum
pregnant
disgrace
outbreak
television
indigenous
epidemic
kenosha
05
2nd
58
aimed
books
eug
jers
mort
ole
pit
punk
pink
range
sj
sar
sow
sons
tall
valley
wo
wore
##fun
##aq
##ubs
##bec
##born
##viet
##hel
##jo
threw
##inary
##esome
blond
bloom
##orse
##icial
init
whist
##unity
reaction
price
amy
##urd
##there
##ches
##standing
deblasio
##rates
sect
unable
soviet
##ifying
bron
spin
whenever
##elsea
##aped
supply
##iah
presidents
overlords
dislike
fled
mayhem
newly
clar
club
scare
backing
beto
coverage
quo
emanc
appease
prem
below
colin
assass
putin
remarks
belief
femin
warning
park
badly
underm
##anced
younger
##ughters
basic
##aha
illegit
glor
breath
italians
feelings
continent
militant
discover
choices
final
patents
england
excuses
maintain
condition
constant
enslavement
miser
representative
mentally
addressed
puppets
services
falsely
##t14
investigate
deserves
cancell
combat
encouraging
promoted
hypocrite
manufactured
empire
utop
eliminated
lynching
lynched
reminds
praise
heavy
suppression
ultim
bigoted
escape
karen
lockdown
colonial
trafficking
palestinians
establishment
inequ
02dc
cycle
introd
robbery
cruz
spirit
barely
pacific
organisation
executive
cocaine
exchange
approximately
eugen
jersey
sjw
emancip
04
92
bowser
cott
dish
dys
eb
hilar
jem
jun
lord
mug
oil
rall
rational
sed
sab
sight
sna
tab
tree
upper
vene
##fare
##face
##riend
##oves
##bow
##bies
##37
##information
##itting
##isons
bear
chain
##istered
stage
##etime
##illion
shad
shocked
trial
##ume
##outs
unc
##agues
##umpt
crooked
outlet
enab
arch
sport
yourselves
reporter
203
gull
saud
##ibbe
logo
mary
resulting
obam
floor
clothing
scumb
scores
perp
liberty
emirates
soci
runs
removing
highlight
terrified
organizer
victory
pays
senior
reds
violently
criminality
insist
allows
##what
homeland
unemployed
ignores
founders
easier
published
followers
signal
recorded
humanity
ensure
passing
represented
absence
nyt
entirely
ruin
solutions
puer
desper
treating
expert
reforms
erad
bankrupt
assaulting
awful
authorities
disrespecting
tested
covered
suspected
negot
countless
originated
versus
patriotic
penal
intimidating
olig
eleven
coward
0001f3fd
contributions
suburbs
lifetime
pedoph
compete
flee
wedlock
apologize
abandoned
merch
spewing
examples
duty
skills
stamps
francisco
delusional
grocery
recruit
fucking
inferior
kushner
hilarious
rallies
venez
65
81
bent
bible
dj
dest
dang
duck
fu
ghan
hiden
hook
lucky
nail
nascar
rail
tan
tied
ven
wise
xen
##do
##lide
##lines
##roc
##rastr
##oh
##oop
##top
##time
##bart
##44
##inating
blamed
##icate
00a6
chelsea
lip
liars
online
chinat
reid
ham
hah
##imated
##amm
##tered
##verted
sham
shipping
##ado
whitmer
##ctional
wash
org
dept
concept
unite
crash
womb
ages
spending
suppl
offered
joey
evident
dise
dispar
knowledge
##isma
image
ourselves
##athy
##arry
righte
quality
emails
feat
##pres
worker
minor
smear
organizers
caring
caribbe
shooter
##lfriend
contain
infrastr
expand
expense
##aker
##ahont
##why
breaks
deput
equival
capable
frequ
plantations
billionaires
girlfriend
prisoners
speakers
186
retired
kinds
absurd
specific
deny
experiment
msnbc
document
fooled
segment
awesome
professors
fraudulent
outright
descript
focused
argue
lesbians
buried
ruled
capitalism
encouraged
demokkk
execution
executed
internet
constitutional
perpetu
agreed
providing
virtue
hopes
kissing
institute
harassed
attitudes
landslide
bribe
palestinian
solidarity
solely
dougl
uniforms
guarantee
permanent
unleashed
integration
diane
chanting
mirror
method
americas
confirmed
grandmother
deliberately
bullshit
zedong
bloomberg
whistle
cotton
dysfun
gullible
puerto
oligarch
ghana
infrastructure
equivalent
51
87
98
aid
apr
bc
bout
bond
cess
dur
dope
fet
ga
giant
len
link
mos
nope
pose
ring
rain
raid
rasm
tib
tune
vol
vet
##nie
##akes
##lands
##roll
##mon
##ez
##gency
##pool
##vin
##18
##38
##22
thie
##aces
##ened
##icia
##itz
toile
##rell
inform
isol
bell
chap
forcing
##uther
stone
react
prisons
##term
shocking
comed
doors
abr
abra
##chel
##child
noted
##ags
##agne
meat
cancer
joined
donate
exterm
##izer
pled
plight
indent
presence
##blue
resent
advert
##ounding
draw
scre
strength
attended
socially
beloved
teens
oppon
genu
warfare
##ussen
talented
wray
plane
didnt
comput
courage
hung
hunted
culturally
fundament
gunned
infl
cream
bann
invent
stupidity
finding
additional
region
failures
series
legend
steven
confisc
maliciously
forms
reparation
publicly
classes
extortion
2764
imported
detr
##rett
250
##lihood
generally
erase
severe
foolish
grandfather
fatally
improved
portray
steps
film
disrespectful
criticized
segregated
##t17
cuts
1960s
existence
pressure
neglect
ruling
districts
hypocrites
intimidate
segregationist
baseball
descendant
omg
budget
cowards
libt
developed
karl
austin
##franch
verb
occurred
gathering
survive
indoctrinated
bomb
begging
dismant
rifle
yrs
powder
fifty
##democrats
initiative
exclusively
dictatorship
coffee
hijacked
williams
colluding
concentration
merely
wheel
constituents
rebuild
ginsburg
hospital
sunday
lobby
memorial
germans
embassy
righteous
##ahontas
dysfunctional
cesspool
rasmussen
tibet
600
ay
bb
bon
bog
dw
ded
dance
fla
hi
hidden
hinn
kr
ku
lor
lma
luther
pd
ram
rating
roles
soooo
tucker
##ipl
##fers
##fla
##aves
##me
##uge
##uous
##she
##t20
##cast
##coming
##yes
##wom
##hl
##95
##76
##21
##acing
blackness
##ener
##itbart
andrew
##omm
##idge
##ionage
stoo
stars
##ethe
rein
print
ships
trou
truck
byrd
goya
##ppers
degr
##iliated
unjust
mattering
##ular
##ifies
outf
alert
##ews
plain
prohib
yours
##apse
offender
offenses
##pans
##bles
safer
loan
actblue
draft
incor
scen
appeal
decre
schem
beliefs
2010
collapse
smith
smoke
smiling
illino
memo
cultures
sky
infilt
kamal
banks
finds
promising
##ologist
homosexual
differently
breitbart
thoughts
steve
espionage
poster
explaining
affected
rapist
minded
identifying
possession
jailed
missing
propagand
radio
radicals
types
##onym
accountable
accountability
representation
representatives
marri
bully
satur
tests
garner
##ification
bias
operative
placed
dropping
##tok
investigated
marching
declar
footage
devast
deserved
falling
salute
nomination
prosecute
prosecuted
returned
hoods
amazon
##going
purposely
forgotten
practices
korean
elev
exploiting
incredible
##ueless
degrees
0001f3fb
mandatory
collective
pigs
defeated
sources
savages
shopping
roman
struggle
acknowled
prosperity
360
indoctrination
emergency
aggression
wwii
intentions
loyalty
shouting
material
adults
survey
veteran
shelves
laptop
determine
experienced
forbid
minimum
nadler
independence
museum
snake
chinatown
caribbean
abrams
genuine
64
62
83
azz
bass
bunk
eh
ell
fer
gate
hbc
mam
ni
pc
pour
pak
rough
rage
sir
tu
tor
tues
wid
wipe
yea
##ias
##night
##nox
##dr
##den
##dain
##fa
##lin
##kind
##mates
##eb
##overs
##ses
##pired
##point
##cl
##boy
##vs
##hr
##har
##hum
##jam
##34
##25
##aca
##acking
##enfranch
##oral
toss
##arms
##uting
##eting
hav
shan
##osh
##osophy
##ador
##uma
##umented
commies
demean
##chec
whoever
##cell
##ils
seize
conce
unqualif
##agn
##agon
##ulian
cruel
##abe
alicia
whats
enacted
donated
donors
extr
expans
aged
aggr
agency
##ivity
spray
plastic
##uela
guise
grave
disaster
disdain
disenfranch
resc
obnox
ads
antif
##ension
viral
phones
incap
##iction
laid
clubs
backward
coinc
stops
apple
preach
accuse
##000
##ogy
popular
takeover
fee
recip
iraq
2014
smarter
writing
ends
endorse
robe
imposs
implement
contact
relatives
pointlessly
crew
adding
##room
##road
##white
hardly
##ette
breonna
dealings
legacy
covid19
refuge
funnel
transport
articles
israeli
speaker
commitment
cuba
victimization
mindset
posting
boat
visited
amongst
hairy
eyed
produc
messages
barb
enforce
brutal
approved
holy
smaller
shutting
shutdown
debates
moms
controlling
grandpar
fatal
annoy
discriminated
garza
criticism
horrific
biased
furious
operatives
accepted
benefited
attempts
speeches
darker
semite
referred
disproportionate
fixed
square
agrees
philosophy
models
blocked
windows
0001f3fc
embarrassing
boxes
repeat
enrich
industr
concerns
code
vietnamese
sympathy
screwed
golden
sucker
0001f1fa
punishment
souls
fortune
comrades
sleeping
lgbtq
worshiping
snowfla
restrictions
dinner
environ
academ
title
motivated
bolshevik
overseas
injured
tiktok
elitist
venture
suicide
comparison
##eteenth
accurate
eugenics
toilet
abraham
indentured
bannon
hinnant
illinois
tuesday
unqualified
4th
76
78
74
77
89
aven
bots
cou
cages
cards
date
fant
fuel
hid
ju
lunch
merc
nuts
os
pin
pap
rican
ridden
sust
sant
sett
tons
trem
upp
uigh
vit
vicious
yard
yuan
##da
##ding
##ls
##lson
##right
##eur
##ok
##oqu
##tm
##cul
##care
##vable
##house
##jan
##xic
##23
##ini
##orm
##orks
##orrow
##only
##eds
toxic
##reh
whine
chances
##idal
##opath
forth
##owing
ongoing
##erst
rever
review
##amer
ship
shipped
##och
##ader
##alling
##umm
##umes
commands
wears
seven
conference
unique
##ighter
##ooo
soy
soil
##abet
outlaw
donnie
brag
brings
brandon
##iven
plag
prover
partner
##endous
counting
noose
shoulder
myster
perspect
mural
drinking
mov
##fta
clueless
strang
coord
quiet
nationwide
email
latina
deciding
##rency
194
desire
opposing
destroys
wont
genius
factor
warned
deflect
instance
carn
systemically
burnt
proportion
illness
compens
content
poorly
relative
relief
handled
newsp
banner
farce
registered
charter
##ruary
##ologies
swim
swallow
civilized
continuing
##ushed
stevie
secure
##iety
reporters
holders
follows
currency
##okee
centers
harves
excess
greed
retire
exception
hats
extended
cheating
imports
pushes
##atto
patron
brutalized
directed
stayed
holes
valid
demonrats
##rection
warrant
ideological
answers
filth
servants
freedoms
hearts
disgusted
investigating
effectively
focusing
counties
originally
nafta
superior
suggesting
herschel
condemning
revolutionary
censoring
practice
practicing
empathy
perpetrators
opinions
eliminating
brainwashing
##known
connected
bigotry
incompetence
sweat
quotas
attributed
applican
competition
##nesday
slowly
##friend
custom
struggling
wednesday
lawyers
kente
advocate
authoritarian
revealed
dependency
demographics
clowns
permanently
substant
translation
graduate
miami
torture
comrade
diplomats
legitimate
sneakers
hawk
physical
rabid
february
instructions
interactions
censorship
##fortable
massacre
arrogant
reducing
conflict
repeatedly
jemim
juneteenth
redskins
xenophobic
description
april
chapter
##woman
saturday
obnoxious
environment
5th
a4
bug
cos
dy
e1
fec
fash
faster
gi
gains
harmed
hys
lit
lond
nhl
pant
pence
ss
sid
tac
tap
tip
vul
wides
wann
zion
##mar
##oking
##tch
##town
##pers
##pread
##wr
##hs
##hab
##69
##28
ther
##inate
##informed
##acity
##ici
##icable
##icient
tok
toll
toast
tooth
informed
##ario
##omp
liked
##ems
##illa
reagan
priest
peas
peep
##vereign
shake
shift
##igible
##igrated
command
##esting
ord
orient
abc
goals
##usted
unknown
sovereign
##ifting
anytime
##ishing
excell
upd
##apo
offering
grie
intended
##pless
aclu
resem
adam
drivers
driven
poison
##iph
firing
firms
incite
cler
clad
strikes
millenn
##ache
##acht
remark
bigots
contrast
##nedy
courts
waving
conte
friendly
handouts
skull
info
##ception
banning
insid
lows
##akers
##aham
headed
fights
congressmen
discipl
panel
rapper
rappers
equip
confron
familiar
soldier
ohio
capit
freak
invested
transm
explained
christmas
idiotic
profile
corrupted
1800
daughters
locking
2009
posts
sentiment
visiting
treas
ruining
judg
convinc
denoun
barrett
silic
documents
60s
predict
viewed
involvement
qualify
representing
bullets
annual
discriminate
relevant
criticizing
profession
meetings
owed
diam
##t16
changing
booker
##appy
declaring
21st
burisma
abolition
towns
spoiled
promotes
networks
tomorrow
sucking
youths
sharp
allegiance
describes
assuming
achieved
koreans
pieces
pretends
moderate
jerk
camel
kenyan
kennedy
preventing
domination
dominated
insulted
admitting
lifest
jumping
romney
belongs
insurrection
engineers
reveals
purchased
deported
infection
rifles
lawlessness
unfairly
celebrating
challenge
jefferson
h1b
attractive
lunatic
reservation
reservations
pocahontas
coalition
hindu
atheist
cherokee
lecturing
infiltration
advisor
illegitimate
discovered
cancelled
utopia
emancipation
203a
venezuela
diseases
lmao
marriage
expansion
incapable
impossible
grandparents
proverb
hyster
widespread
54
93
911
a8
bald
bucks
cents
dan
gal
hence
hint
hits
jury
lame
luc
muss
nf
nut
nose
nbc
ought
pad
porn
pale
row
ros
rig
rant
rising
rino
ske
tun
task
vern
wre
wig
##no
##dle
##dra
##lv
##rum
##mad
##ga
##ple
##pot
##part
##bans
##von
##yeah
##17
##35
tha
##inet
##inos
##acik
##athing
bleed
##onom
##onies
##icting
##itude
toe
todd
##rey
ingr
##alk
chip
##veland
formed
liby
##olini
##irst
##illed
##illance
revers
priority
##amous
shr
sher
shes
trag
trend
trail
whitest
alliance
dod
weight
abusing
##sein
##cho
##char
##iang
season
unh
unpr
uncom
manh
mankind
##orting
lean
criter
justices
alco
brill
proved
proxy
##aping
##elling
grants
disad
disrupt
##ibution
lover
load
loathing
active
acce
obese
drink
flat
inclus
faux
strict
##anged
consum
liberia
appe
accusing
electing
0001f5
asset
remains
minist
controvers
smoll
parade
installed
payroll
##weight
proph
comply
impunity
monit
pointed
newsom
stream
freeing
livelihood
invited
expensive
fails
campus
miles
glasses
cleveland
dealer
civilians
boyfriend
capita
threatens
selfish
explan
peacefully
investments
protected
advice
cuz
mainland
locations
morals
checking
condes
buys
produce
listened
balls
facilities
approve
resulted
qualification
healthcare
robes
robbing
expecting
wishes
employee
releasing
closely
operating
associate
secretly
entering
entered
existed
creature
corporation
marched
walker
walkaway
versa
interviewed
hypocritic
klacik
270c
chauff
manipulating
injustices
allegations
0001f622
1970
1970s
achievement
hussein
punished
britain
distur
distance
recognized
confeder
exploited
jerry
##struction
blocking
limited
rejected
development
atlantic
perfectly
abolishing
savage
struggles
sanctuary
commercials
scientist
tactic
bribes
0001f1f8
##worth
fortun
dismiss
uniform
ambass
celebrated
odds
surveillance
journalists
veterans
reelected
reelection
prepared
persecution
revenge
hmmm
oblig
excluding
accusations
syria
scholarships
sacrif
egg
routine
september
encounter
vandalism
miserable
dishon
penalty
djt
thieves
detriment
bogus
stooge
pakistan
widow
##human
uppity
jemima
fashion
london
equipment
convincing
silicon
diamond
mussolini
criteria
alcohol
67
63
aa
bay
bump
cbs
cup
dun
fos
guts
han
htm
ic
jur
jared
lago
larry
mac
mock
moses
natives
niger
oops
ps
por
pom
pist
pill
pile
pip
pitch
rum
rose
rude
rosen
sic
settle
tone
tast
tuls
ves
wives
wik
yup
zim
##ien
##iber
##iences
##news
##fu
##ae
##lished
##eem
##ograph
##ule
##yy
##65
##99
##ince
##inous
##ato
blames
##anity
##another
##onami
anime
##inging
toonami
ink
inmates
##leg
##leans
ish
beach
##owe
##owed
chines
##icans
stocking
##etically
reward
pron
hamm
shall
shield
shoe
traged
##ocol
asks
whiteness
##keys
allah
web
orleans
frust
suits
uncon
unpre
manif
##ulf
##ulation
atroc
cries
crick
##ables
##laim
joint
enact
brunt
bricks
branch
upl
spit
spite
speed
##eline
##enders
overall
guest
grade
sale
disli
actively
dram
virologist
flash
##icked
incent
clip
closing
scand
score
downtown
viruses
latter
makeup
cogn
##angel
apps
appla
prez
prefers
helpless
pope
protested
##render
thro
remaining
medic
bills
careful
minister
shots
smh
organize
plays
greatly
underground
neighbour
seniors
complex
studying
imper
hunting
hungry
monuments
skyr
infested
infamous
stronger
strongly
edison
invite
expend
headlines
economically
swear
seemed
surg
surrender
admits
finish
fewer
walks
captain
explains
profits
oppressive
engage
cube
victimhood
masses
bench
2006
feds
vision
borne
solved
hitting
possibility
apology
landed
trading
tradition
experts
facilit
increases
currents
viewers
grandchild
firearms
previously
stephen
annually
discriminating
testing
ukrainians
christianity
hearted
assaults
correction
effects
semitism
fallen
reference
adopting
##overished
normally
condemned
describing
mlb
financed
selected
selection
perpetrated
predominately
buddy
lynchings
ultra
shameful
scottish
martyr
##sylv
escal
escaped
embarrassed
meaningless
quotes
bags
worrying
catching
davis
territories
established
closet
codes
boots
boycot
ironically
strateg
significantly
machines
appropriate
tyranny
connection
dumped
dragon
satanic
merit
dissidents
contracts
bombs
ilk
##peo
essential
powers
clothes
robberies
migrants
precinct
tweeted
stereotype
stereotypes
##guided
sensitive
flights
persecuted
emotional
revenue
entry
increasingly
motorcy
bangers
sanctioned
accidentally
pennsylv
cockt
pissed
pardoned
champion
0001f4a5
undermine
inequality
sabot
saudi
scumbag
demokkkrat
whistlebl
fundamental
lori
infiltrated
backwards
industrial
movies
newspaper
brilliant
explanation
condesc
hypocritical
pompeo
tulsa
skyrock
pennsylvania
03
69
aids
alex
cain
cure
dall
dere
dial
dup
dual
dwell
fy
farr
gall
gaining
gained
hord
jason
lu
ly
lest
length
mz
moun
mitt
nw
nbs
nyp
oak
pm
pound
ron
rot
rud
raging
tout
uae
##ios
##not
##de
##fy
##awn
##lives
##look
##run
##mark
##gen
##gar
##gers
##oked
##ovel
##uana
##tin
##can
##bon
##hom
##hal
##hell
##54
##90
##82
##15
##75
##39
tho
##atics
##ingu
##oux
##reach
##repres
##arming
bears
chasing
##usi
##ola
##olith
stead
reign
reaching
pee
hait
##iments
heels
##tering
shade
tray
aspect
##igger
withdra
##umbling
demor
doom
dole
goons
##cel
communications
depl
unre
manner
##ulated
##orted
poles
polish
aligned
sheet
maher
##ghan
##ghai
donating
exceed
##trine
brian
brave
brief
bridge
##izz
spr
spain
plug
proving
##gee
herman
reply
repress
offense
grass
disab
disinformation
loaded
images
resident
resume
##athan
moves
clue
pervert
struck
##quer
coop
coaches
leads
idol
##undit
##oots
busing
belt
lawm
synd
twist
twisted
asses
recon
operate
parks
writ
instig
payers
propose
impoverished
contempt
monolith
memory
liberalism
fundra
colorado
newsome
##resp
##leted
addicted
masked
differences
glass
godless
swine
sworn
slim
slur
labs
panic
singing
chooses
confirm
pattern
guessing
explos
understood
weekly
membership
rapes
rapists
advanced
polled
engaged
cubans
mattersblack
benjam
lights
2007
posters
sentencing
boom
importantly
detail
judicial
convict
denying
despicable
respected
silver
walls
targets
doctrine
activities
misery
misguided
involves
involving
##phas
resistance
gays
favors
authored
announce
disgu
sooner
worthy
productive
operated
##t12
1965
1964
correctly
statistically
maxim
burgl
##ijuana
tears
lowered
surprising
assumed
immediate
1973
unfortunate
punks
350
hotel
crowds
hostage
praising
trojan
heaven
graduation
leaves
projects
3000
photos
apartment
dreams
0001f926
necks
regulations
crossing
dimw
##hammad
repeating
symbols
##hhhh
enroll
jumped
harassment
savior
fingers
democraps
backgrounds
participate
prosperous
islander
appropriating
dares
junkie
scarves
1950
dependence
purchase
announc
aggressive
affects
rarely
treasonous
migration
precious
occupied
integrity
unbelievable
##board
fredo
academic
cabinet
nickn
convenient
measures
bobby
ruthless
congrat
helmet
betrayed
antisemitism
absentee
prostitute
marginalized
policemen
demoncrat
premise
shadow
maryland
sociopath
pedophile
frequently
douglas
lenin
rainbow
resentment
computer
dismantle
scenario
bunker
ellison
shanghai
coincidence
annoying
perspective
carnage
applicants
wannabe
lifestyle
libya
tragic
accepting
ambassador
html
unpreced
grandchildren
dallas
mzlem
nbsp
88
84
800
bost
bath
bbc
cp
cough
cuck
cats
c77
dese
ditch
dyn
dancing
daca
fb
fest
fits
flaw
gut
gib
gigg
hiv
ire
icon
ky
kend
kings
kaz
klu
kicking
kyle
lords
mul
mud
mitch
nah
nerve
pair
peter
rag
ride
river
sr
size
sits
saint
tus
tie
tea
uy
umm
va
vat
vib
wolf
wiped
yall
##dam
##far
##fere
##fast
##fire
##ford
##aug
##lm
##rome
##may
##gle
##gus
##uu
##po
##paid
##person
##ciss
##wer
##hor
##hey
##60
##7b
##78
##74
##zo
##zos
thread
thumb
##erce
##inum
##atist
blackface
##oning
##ingo
##eday
anderson
##rep
whip
##otov
##alo
##alin
islands
chase
chaz
##idly
##idel
lil
##olve
ster
stir
stim
##lyn
heal
shack
shared
##ura
##urt
trigger
asia
##igo
##thusi
##umber
weaken
##essions
##sec
fresh
rachel
##antic
sequ
##agement
##agger
##ulp
##ulus
polar
leo
leban
sovi
trumpers
afro
##ifiable
outreach
joes
alb
alph
alright
whatso
enthusi
anyways
##izers
##izations
spooked
partn
partial
knocked
offers
slap
##ollah
evangel
guine
grop
grant
grif
disband
marry
maraud
marijuana
persu
droves
virology
clim
##assed
scale
perce
string
strings
##reek
##ques
coke
quarant
terrell
emphas
apples
preacher
copy
electron
electric
december
decides
text
teeth
syn
twenty
assem
fees
##force
thriving
highway
recover
recomm
offices
officially
sinc
superv
meddling
contrary
2011
##ussie
deficit
organizing
interfer
interven
chicks
chicoms
carlson
payback
##azi
burns
compass
comparing
compreh
someday
hunt
hunters
aborting
##lude
turner
banking
1024
invaded
winter
charles
masquer
##obama
immune
singled
posing
finance
finished
founding
entities
skinny
transfer
pastors
artist
curious
oppressing
campaigning
morally
constr
richard
descended
properties
160
1600
solom
25th
questionable
##attan
denial
patrol
traded
generals
fearful
agendas
directors
##ysis
sexually
complicit
nightly
outsour
mentor
marketing
marrying
improving
felony
portra
bullet
bullying
satis
servant
biowe
associates
##t13
cutting
1968
favored
##toe
0001f914
extremists
80s
fascism
slept
proceed
straw
2122
magaz
influenced
##merman
request
shortly
technically
celebrity
intimidated
sucks
incomes
forgive
1976
perpetual
grounds
elimination
element
eleph
suppressed
dominate
counterfe
virtual
mandated
songs
regularly
quoted
turkey
logical
capture
palestine
awards
disappoint
entertainers
gatherings
obsc
obsessed
appropriation
engineering
tyrann
mccon
##ihil
reveal
purchases
blackmailed
flooding
punched
suspicious
teenager
##backs
guaranteed
tolerance
temple
software
broadcast
molotov
mansion
permit
unbeliever
0130
delay
determined
branded
experiencing
subsidized
gentlem
colluded
stabbed
surrounded
replacement
0001f44a
mongol
measure
bolsheviks
spokesperson
azt
sioux
congreg
##ablack
requirements
category
hustlers
hyd
bastard
frankly
laundering
somalia
policeman
retarded
demoncrats
demonstrations
initial
clarence
feminist
ultimate
ultimately
jerseys
outlets
obamas
desperately
hahahah
supplies
opponent
confiscate
libtard
dedicated
scheme
declaration
##uliani
aggrav
rescue
santa
tremendous
swimming
substantial
sidew
griev
context
nfac
vernon
sheriff
manhattan
controversial
rosenberg
tragedy
crickets
applaud
expendable
whistleblower
condescending
fyi
farrak
mountain
oakland
trayvon
deplor
cooperate
syndrome
unprecedented
boston
uygh
soviets
whatsoever
guinea
bioweap
1m
2m
79
b8
bend
bread
busted
cad
dil
dating
dub
eager
fo
fab
fence
fff
gin
gap
gift
hen
hil
hip
honey
hars
ie
ip
jen
jet
jose
jord
jussie
kav
lung
mf
nj
nic
naming
pg
pic
pil
pamp
pets
ras
ray
rural
roof
sf
soph
sque
tant
torn
tony
tape
uc
uber
voc
vil
veg
viciously
wire
waging
yan
yacht
zom
##iarch
##nec
##nba
##die
##dog
##a8
##awe
##list
##rid
##rican
##rence
##mp
##min
##mers
##good
##uable
##tab
##pm
##cles
##bor
##yard
##wa
##win
##wich
##work
##63
##33
##26
##27
thier
thurs
##erved
##inj
##inity
##esp
blast
##onven
##onio
##oul
##itious
##itable
##iser
andy
##reated
inject
##otes
##aska
##alous
bee
beer
00a7
##ionary
##opher
stem
stones
stoking
stalin
rely
rewr
##imacy
shed
shock
tranny
##ockey
##igue
##tha
##umst
##umbs
wasting
##esto
abus
fron
frag
fried
deem
afghan
##antifa
matt
une
unac
unlaw
manage
##ulates
##ortions
##arters
atm
leagues
cring
cruc
##abama
users
##lahom
outstanding
joining
alter
align
altern
alabama
exerc
plants
##elt
presumpt
repr
##ective
##eller
counted
novel
noble
tail
gray
gross
sake
sauce
disney
##acters
loath
acted
imbec
indiana
adolf
##ounds
antonio
drown
flo
flames
##ourke
phar
##ulture
inconven
cloud
##ansas
strife
coach
attending
nationally
whereas
preaching
electoral
corp
decimated
##ogue
##ogyn
##ogatory
protestant
letters
lethal
assert
assumpt
thrive
reminder
kidna
##ervation
irr
2024
warm
opens
collar
collaps
define
parad
interfere
talent
instantly
instances
underlying
chicom
payments
endang
##aza
##azz
harry
proposed
movements
impose
imposed
impacted
nationality
nationalism
redistr
monsters
bashing
handful
skate
insign
insisted
inspired
invade
##rooms
##roxy
regimes
regret
charlam
characters
hardest
arabia
breed
slam
##obuch
labour
educating
steel
surf
subvers
##rupted
equals
finest
entrep
oklahom
freaking
freaks
forming
considers
christopher
gangb
rapidly
dawn
damaging
retr
checked
richest
boost
huawe
solving
judged
armies
production
produced
denomin
cert
messiah
universe
treaty
fears
brutally
proudly
140
misc
misogyn
debun
laboratory
seconds
distrib
resisted
purposes
dumbest
revol
awaken
annihil
commenting
clintons
placing
diagn
occas
crackhead
0001f937
behaviors
traveling
breakdown
cardi
##appropr
apparent
avo
arguments
1776
magn
ancestor
semi
capitalist
salaries
##ika
canceled
technologies
ghost
prosecution
mouths
suggests
suggested
klobuch
mistreated
nato
manufacture
267b
fairy
1972
distingu
epic
hostile
praises
platinum
provides
suppressing
auto
leaked
bowing
apartments
subserv
counterpart
karens
renounce
mandar
mandate
sweep
tension
collection
##comes
rebell
turd
jealous
deranged
derogatory
applications
colonies
sponsor
clinic
harassing
##vantaged
castr
flew
roberts
responding
necessarily
sympathizer
advocating
scarf
relationships
geez
punching
conclus
##crib
circle
dumber
dummy
tourist
tedros
buddh
vandalized
tolerate
utterly
princip
occupation
fifth
option
villages
##ttps
physically
addiction
unbelievers
subsidi
william
emotion
##oooooooooooooooo
cooperation
submission
replacing
circumst
laying
woods
analysis
conquer
##ipedia
micros
##donald
charlie
pimp
switched
cockro
tricked
brazil
rogue
inherently
stripes
breathe
introduced
eradicate
fleeing
recruitment
expanded
deputies
documentary
volunt
vetting
advertising
screen
inflicted
neglected
##onymous
fergus
tuition
demeaning
##check
recipients
refugees
snowflake
fueled
hidin
uighurs
excessive
customers
giuliani
excellent
discipline
capitol
judgement
reversed
unhappy
disadvantaged
smollett
chauffeur
sacrifice
zimmerman
nwo
nypd
disabled
reconstruction
benjamin
kendi
klux
stimulus
recommend
masquerading
solomon
hydroxy
aggravated
farrakhan
fffc
thursday
afghanistan
inconvenient
charlamagne
entrepren
oklahoma
huawei
klobuchar
circumstances
ferguson
61
700
8f
9e
96
900
aims
bin
breat
bird
batter
bhr
cig
cous
dor
dime
dread
dimin
etern
fent
fart
fighter
fulf
gam
gag
gaming
gaff
hog
jill
kh
kap
las
mt
mall
mons
nan
nam
nap
nix
ore
pse
pity
pals
panc
pork
pony
ports
pundit
rope
rotten
rourke
sot
sore
sway
soup
tam
tla
tds
tires
tatto
wis
wet
wade
wield
wounded
yards
##iently
##nt
##nell
##dan
##dles
##field
##ault
##afe
##aked
##aunch
##afr
##lined
##kanda
##kota
##rr
##mare
##matter
##ele
##every
##gun
##oval
##sing
##t00
##culture
##bab
##bie
##ym
##year
##his
##hear
##zi
thief
theres
##erting
##acon
##atr
##ater
##atch
blo
blacki
blacklives
##ena
##orate
##iching
##edient
##itation
##isible
inaug
whis
whipped
##aria
##arians
##areness
##asy
##alities
bezos
00a2
chi
chat
chican
chump
##usal
##opol
##owa
##owers
##eman
##olent
stack
stee
stacy
stink
staunch
items
haired
amid
shore
shorts
shaking
trigg
##ocation
##ocumented
##aders
##adays
##ige
##these
##kegee
commits
demise
wasted
##sexual
frame
fraction
suv
##ateful
nefar
notion
##rator
##ilized
theirs
congo
converted
unity
untr
uninformed
##agers
cray
crush
crushing
craw
##iffer
outcome
donkey
exit
brah
brook
arent
upr
ploy
##eled
partially
indo
2000
slavers
overd
overweight
guards
guests
grown
graff
sahar
intel
intend
disreg
dischar
nowadays
supportive
acb
resists
dry
drain
drives
drove
drops
##acey
flip
inciting
moon
lawn
laura
lakota
scold
violations
perps
betting
lefties
struct
murderous
coat
consult
consulates
##underst
muhammad
appalled
##kedown
keith
lawful
popularity
throws
removal
believers
daylight
sink
medal
median
gene
##othe
ops
default
interaction
underage
carp
carav
payment
shooters
senseless
terrorize
##ancies
monument
monkeys
bases
relate
##issipp
kamel
creation
creep
inspir
insanity
invaders
regards
##when
behold
behave
candice
dealt
slum
potato
militants
congresswoman
discred
singer
fines
patient
malcom
caps
0001f64
elsewhere
gangst
130
signing
advised
sells
purse
damaged
lighter
extent
truths
cheering
cheered
societies
questioning
questioned
setup
mississipp
patriarch
treats
trapped
trauma
fearing
##uffed
concerning
120
##ipper
predicted
misinformation
misunderst
complains
nightmare
genocidal
healthy
robin
narciss
awareness
##porated
estimated
esteem
cartoon
ethic
authent
horror
operations
acceptance
jimmy
##t15
storm
statistic
creatures
screams
covering
declined
devot
carried
magic
paul
consideration
gangster
220
furthermore
barrack
dictionary
lyndon
laughable
mistreat
mistaken
naturally
1990s
bitter
reportedly
practically
epis
recognition
discussions
##iiii
metro
trusted
cowork
bowman
kenya
tencent
limits
separatist
preferential
rounded
moronic
comprised
crossed
coloured
contribution
contribute
quota
midnight
##enched
package
pedo
applies
applied
jessie
enriching
deterior
amendments
sponsors
##aaaa
telepr
endorses
endorsing
labeling
tribalism
booth
romans
petty
split
succeeded
gathered
variety
screwing
complaint
vehicles
advocates
junkies
tyrants
holidays
undocumented
flooded
kimber
##worthy
suspic
suspended
0001f496
ilhan
##crap
aggressively
doubled
ww2
dressing
scholar
ambushed
cloths
translated
graduates
tortured
widely
illiteracy
unsafe
dui
##holder
deceased
unwed
unwilling
coffin
stabbing
hugo
wilson
analy
accusation
buffalo
bucket
cookies
helmets
charlott
demonstrated
categor
butcher
launched
collaborator
antisemitic
consistently
infiltrate
egyptian
somali
0001f4a9
mortg
mortality
sowell
##because
##helm
sector
bronx
assassinated
sedition
signaling
supplied
deputy
oligarchs
isolate
comedy
dwar
prohibited
decreased
acknowledged
feeble
funneled
avenue
reverend
plagiar
harvest
vulner
oriental
hysterical
uncomfortable
inclusive
consumers
disturbing
lagoon
pistol
wikipedia
hammer
uplift
medicine
neighbourhood
surgery
haitian
withdraw
lawmakers
##respons
announcement
nickname
flawed
ireland
kazak
tuskegee
vatican
##maybe
alphabet
sincere
elephant
counterfeit
tyrannical
aztec
bioweapon
harsh
jordan
sophistic
presumptive
gangbang
castro
conclusion
monster
nixon
pseud
tlaib
tattoos
inaugur
steele
graffiti
mississippi
1e
370
6th
73
7th
82
avi
bind
bans
bah
bones
c5
cement
cute
cnbc
dos
dia
danny
ego
erupted
fod
file
fidd
fdr
gul
hr
hump
hud
horn
https
iowa
jp
jon
josh
jazz
kin
kra
lone
lists
mn
mant
mile
nit
nas
nause
npr
oly
oce
pics
rack
rod
rash
sought
sung
til
tag
tank
tiger
vend
vind
vine
wack
wol
wret
wicked
zip
zte
zeal
##iy
##iking
##iations
##iably
##nut
##number
##dj
##d1
##fall
##aving
##aired
##lord
##lash
##ki
##kim
##kick
##rent
##rick
##rup
##ev
##eath
##gs
##tes
##ca
##cow
##case
##cious
##cra
